#include <model_tflite.h>
const unsigned char model_tflite[] = {

 0x1c, 0x00, 0x00, 0x00, 0x54, 0x46, 0x4c, 0x33, 0x14, 0x00, 0x20, 0x00, 
 0x1c, 0x00, 0x18, 0x00, 0x14, 0x00, 0x10, 0x00, 0x0c, 0x00, 0x00, 0x00, 
 0x08, 0x00, 0x04, 0x00, 0x14, 0x00, 0x00, 0x00, 0x1c, 0x00, 0x00, 0x00, 
 0x9c, 0x00, 0x00, 0x00, 0xf4, 0x00, 0x00, 0x00, 0x40, 0x32, 0x00, 0x00, 
 0x50, 0x32, 0x00, 0x00, 0xc8, 0x38, 0x00, 0x00, 0x03, 0x00, 0x00, 0x00, 
 0x01, 0x00, 0x00, 0x00, 0x10, 0x00, 0x00, 0x00, 0x00, 0x00, 0x0a, 0x00, 
 0x10, 0x00, 0x0c, 0x00, 0x08, 0x00, 0x04, 0x00, 0x0a, 0x00, 0x00, 0x00, 
 0x0c, 0x00, 0x00, 0x00, 0x1c, 0x00, 0x00, 0x00, 0x3c, 0x00, 0x00, 0x00, 
 0x0f, 0x00, 0x00, 0x00, 0x73, 0x65, 0x72, 0x76, 0x69, 0x6e, 0x67, 0x5f, 
 0x64, 0x65, 0x66, 0x61, 0x75, 0x6c, 0x74, 0x00, 0x01, 0x00, 0x00, 0x00, 
 0x04, 0x00, 0x00, 0x00, 0x8c, 0xff, 0xff, 0xff, 0x0c, 0x00, 0x00, 0x00, 
 0x04, 0x00, 0x00, 0x00, 0x08, 0x00, 0x00, 0x00, 0x6f, 0x75, 0x74, 0x70, 
 0x75, 0x74, 0x5f, 0x30, 0x00, 0x00, 0x00, 0x00, 0x01, 0x00, 0x00, 0x00, 
 0x04, 0x00, 0x00, 0x00, 0x8e, 0xce, 0xff, 0xff, 0x04, 0x00, 0x00, 0x00, 
 0x11, 0x00, 0x00, 0x00, 0x6b, 0x65, 0x72, 0x61, 0x73, 0x5f, 0x74, 0x65, 
 0x6e, 0x73, 0x6f, 0x72, 0x5f, 0x36, 0x35, 0x31, 0x37, 0x00, 0x00, 0x00, 
 0x02, 0x00, 0x00, 0x00, 0x34, 0x00, 0x00, 0x00, 0x04, 0x00, 0x00, 0x00, 
 0xdc, 0xff, 0xff, 0xff, 0x0f, 0x00, 0x00, 0x00, 0x04, 0x00, 0x00, 0x00, 
 0x13, 0x00, 0x00, 0x00, 0x43, 0x4f, 0x4e, 0x56, 0x45, 0x52, 0x53, 0x49, 
 0x4f, 0x4e, 0x5f, 0x4d, 0x45, 0x54, 0x41, 0x44, 0x41, 0x54, 0x41, 0x00, 
 0x08, 0x00, 0x0c, 0x00, 0x08, 0x00, 0x04, 0x00, 0x08, 0x00, 0x00, 0x00, 
 0x0e, 0x00, 0x00, 0x00, 0x04, 0x00, 0x00, 0x00, 0x13, 0x00, 0x00, 0x00, 
 0x6d, 0x69, 0x6e, 0x5f, 0x72, 0x75, 0x6e, 0x74, 0x69, 0x6d, 0x65, 0x5f, 
 0x76, 0x65, 0x72, 0x73, 0x69, 0x6f, 0x6e, 0x00, 0x10, 0x00, 0x00, 0x00, 
 0x48, 0x31, 0x00, 0x00, 0x40, 0x31, 0x00, 0x00, 0xf0, 0x30, 0x00, 0x00, 
 0xd8, 0x28, 0x00, 0x00, 0xc8, 0x08, 0x00, 0x00, 0xb4, 0x08, 0x00, 0x00, 
 0x64, 0x08, 0x00, 0x00, 0xd4, 0x07, 0x00, 0x00, 0xc4, 0x06, 0x00, 0x00, 
 0xb4, 0x00, 0x00, 0x00, 0xac, 0x00, 0x00, 0x00, 0xa4, 0x00, 0x00, 0x00, 
 0x9c, 0x00, 0x00, 0x00, 0x94, 0x00, 0x00, 0x00, 0x74, 0x00, 0x00, 0x00, 
 0x04, 0x00, 0x00, 0x00, 0x4e, 0xcf, 0xff, 0xff, 0x04, 0x00, 0x00, 0x00, 
 0x60, 0x00, 0x00, 0x00, 0x10, 0x00, 0x00, 0x00, 0x00, 0x00, 0x00, 0x00, 
 0x08, 0x00, 0x0e, 0x00, 0x08, 0x00, 0x04, 0x00, 0x08, 0x00, 0x00, 0x00, 
 0x10, 0x00, 0x00, 0x00, 0x24, 0x00, 0x00, 0x00, 0x00, 0x00, 0x06, 0x00, 
 0x08, 0x00, 0x04, 0x00, 0x06, 0x00, 0x00, 0x00, 0x04, 0x00, 0x00, 0x00, 
 0x00, 0x00, 0x00, 0x00, 0x0c, 0x00, 0x18, 0x00, 0x14, 0x00, 0x10, 0x00, 
 0x0c, 0x00, 0x04, 0x00, 0x0c, 0x00, 0x00, 0x00, 0xd4, 0x0c, 0x9c, 0xed, 
 0xd2, 0x69, 0xb8, 0x07, 0x02, 0x00, 0x00, 0x00, 0x02, 0x00, 0x00, 0x00, 
 0x04, 0x00, 0x00, 0x00, 0x06, 0x00, 0x00, 0x00, 0x32, 0x2e, 0x31, 0x39, 
 0x2e, 0x30, 0x00, 0x00, 0xba, 0xcf, 0xff, 0xff, 0x04, 0x00, 0x00, 0x00, 
 0x10, 0x00, 0x00, 0x00, 0x31, 0x2e, 0x35, 0x2e, 0x30, 0x00, 0x00, 0x00, 
 0x00, 0x00, 0x00, 0x00, 0x00, 0x00, 0x00, 0x00, 0x28, 0xc9, 0xff, 0xff, 
 0x2c, 0xc9, 0xff, 0xff, 0x30, 0xc9, 0xff, 0xff, 0x34, 0xc9, 0xff, 0xff, 
 0xe6, 0xcf, 0xff, 0xff, 0x04, 0x00, 0x00, 0x00, 0x00, 0x06, 0x00, 0x00, 
 0x36, 0x64, 0x64, 0x3e, 0x1b, 0x0e, 0x6b, 0xbc, 0xfa, 0x79, 0x9b, 0xbd, 
 0x3a, 0x89, 0x1c, 0x3e, 0x82, 0x3b, 0xd1, 0xbd, 0x7a, 0xc6, 0x7e, 0x3e, 
 0x08, 0x09, 0x1b, 0xbc, 0xd0, 0xc3, 0x6e, 0xbe, 0xdf, 0x51, 0x31, 0x3e, 
 0x23, 0x34, 0x01, 0x3e, 0x53, 0x66, 0x36, 0xbd, 0xff, 0x81, 0x85, 0xbe, 
 0xd0, 0x2c, 0x4f, 0xbe, 0xd8, 0xb4, 0xe2, 0xbd, 0xe7, 0x83, 0x4b, 0x3c, 
 0x37, 0xfa, 0x4b, 0xbd, 0x2d, 0xab, 0x52, 0x3b, 0x34, 0xec, 0xd9, 0x3d, 
 0xe6, 0x45, 0x08, 0xbe, 0x73, 0x3c, 0xc6, 0x3d, 0x06, 0x50, 0x42, 0xbe, 
 0x78, 0xec, 0xac, 0x3d, 0xfe, 0x1f, 0x20, 0x3e, 0x6f, 0x31, 0x25, 0x3e, 
 0x89, 0xad, 0x10, 0xbe, 0xaf, 0xfa, 0xc8, 0x3c, 0x37, 0xc7, 0xa5, 0xbd, 
 0x8d, 0x80, 0x50, 0xbe, 0x39, 0x35, 0x20, 0x3e, 0x93, 0x75, 0x6f, 0xbe, 
 0x4d, 0xa3, 0x60, 0x3e, 0x3d, 0x67, 0x71, 0xbe, 0x0e, 0xba, 0xa6, 0xbd, 
 0x96, 0xf3, 0x1b, 0x3e, 0x7e, 0xc0, 0x85, 0xbd, 0x15, 0x64, 0xa6, 0x3b, 
 0xca, 0x54, 0xc5, 0x3c, 0x89, 0xc7, 0x3b, 0x3d, 0x0a, 0x6e, 0x3d, 0xbe, 
 0x2b, 0xba, 0x2e, 0x3e, 0x98, 0x77, 0x30, 0xbb, 0x9a, 0x73, 0xc1, 0xbc, 
 0x0b, 0x8f, 0x23, 0xbe, 0x60, 0x23, 0xa0, 0xbd, 0x62, 0xfc, 0x13, 0xbe, 
 0x5f, 0x61, 0x03, 0x3e, 0x02, 0x40, 0x96, 0x3d, 0x41, 0x81, 0xae, 0x3d, 
 0x6e, 0x3e, 0x08, 0xbe, 0x59, 0x7a, 0x70, 0xbe, 0xa4, 0x20, 0x3d, 0x3e, 
 0x4e, 0x27, 0x38, 0x3e, 0x4e, 0xbe, 0x21, 0xbe, 0x9b, 0xb2, 0x2a, 0xbe, 
 0x05, 0xb0, 0x66, 0x3e, 0x84, 0xdf, 0x7e, 0x3e, 0x5f, 0x05, 0xcb, 0x3d, 
 0x62, 0x14, 0x61, 0xbe, 0x93, 0xf0, 0x47, 0x3e, 0x4d, 0x81, 0x5f, 0xbe, 
 0x25, 0x27, 0x15, 0x3e, 0x1c, 0x47, 0x9d, 0xbd, 0xa1, 0x01, 0xcb, 0x3d, 
 0xef, 0x7f, 0x74, 0xbe, 0x71, 0x7f, 0x19, 0xbc, 0x85, 0x19, 0x00, 0x3e, 
 0x49, 0xdc, 0x6b, 0xbe, 0x2f, 0x9a, 0x79, 0x3e, 0x13, 0x10, 0x9a, 0xbc, 
 0x58, 0x5c, 0xe2, 0xbd, 0xfa, 0xb6, 0x16, 0x3c, 0xe8, 0xe5, 0xf3, 0x3c, 
 0xff, 0x84, 0x89, 0xbd, 0xd0, 0x09, 0xfb, 0x3d, 0x35, 0x11, 0xa9, 0x3d, 
 0xb3, 0x8a, 0x01, 0x3c, 0x63, 0xf1, 0x5f, 0xbe, 0xf1, 0x97, 0x6f, 0x3e, 
 0xda, 0x45, 0x65, 0xbe, 0x60, 0xb9, 0xf7, 0xbd, 0x39, 0x66, 0x52, 0xbe, 
 0x39, 0xda, 0x49, 0xbe, 0x16, 0xda, 0x35, 0xbb, 0xa7, 0xf6, 0x00, 0xbe, 
 0xce, 0x8e, 0x5c, 0xbe, 0xb3, 0x7d, 0x2b, 0xbe, 0xec, 0x6a, 0x71, 0xbe, 
 0x81, 0x1a, 0x06, 0x3d, 0x3a, 0xe6, 0x4c, 0x3e, 0xfa, 0xfa, 0x44, 0x3e, 
 0xe9, 0x7d, 0x50, 0xbe, 0x7f, 0x26, 0x07, 0xbe, 0xf2, 0xa3, 0xb4, 0xbd, 
 0xe8, 0xda, 0x37, 0x3e, 0x37, 0x5a, 0x37, 0xbe, 0x80, 0x48, 0xe9, 0xbd, 
 0x28, 0xa8, 0x23, 0x3e, 0x17, 0xd0, 0x66, 0x3e, 0xaf, 0x3a, 0x82, 0xbe, 
 0x5e, 0x16, 0x55, 0x3e, 0x93, 0xe2, 0x33, 0xbe, 0x79, 0x80, 0xfe, 0xbc, 
 0x03, 0x43, 0x17, 0xbe, 0x17, 0xf0, 0x15, 0x3d, 0x54, 0x31, 0xa1, 0x3c, 
 0xe5, 0x1d, 0x38, 0x3e, 0x25, 0x6a, 0x63, 0xbe, 0x43, 0x1c, 0x15, 0x3e, 
 0x8c, 0x8e, 0x02, 0x3e, 0xdb, 0xce, 0xea, 0xbc, 0xec, 0xa7, 0x0b, 0xbc, 
 0x43, 0xec, 0x1f, 0x3e, 0xb0, 0x99, 0x71, 0xbe, 0x61, 0x4a, 0x8d, 0xbc, 
 0xb8, 0xa1, 0x0b, 0x3e, 0x8c, 0xfa, 0x94, 0x3d, 0x58, 0x00, 0x0b, 0x3e, 
 0x7c, 0xaf, 0x10, 0x3e, 0x93, 0xcb, 0x78, 0xbd, 0x53, 0x65, 0xac, 0xbb, 
 0xd9, 0x41, 0x13, 0xbe, 0xc9, 0x25, 0xd7, 0xbd, 0xf8, 0xe0, 0x6e, 0x3e, 
 0xcb, 0x7c, 0xc8, 0x3c, 0xfc, 0xf4, 0xb1, 0xbd, 0xec, 0x1d, 0x2a, 0xbe, 
 0xfc, 0xc7, 0xf5, 0xbd, 0xb0, 0xba, 0xac, 0xbd, 0xe3, 0xe5, 0x22, 0x3e, 
 0x4c, 0x07, 0x70, 0x3e, 0x3b, 0x38, 0xdf, 0xbd, 0x5d, 0xd4, 0x95, 0x3d, 
 0x12, 0xe4, 0xb1, 0xbd, 0x9b, 0xd6, 0xc5, 0x3c, 0x05, 0x9b, 0xb7, 0x3d, 
 0xaa, 0xbc, 0x5a, 0xbd, 0xd7, 0x61, 0xd8, 0xbc, 0xe2, 0x46, 0x17, 0x3e, 
 0xaa, 0x99, 0x66, 0x3e, 0x40, 0x18, 0x97, 0xbd, 0x0d, 0xb6, 0x4c, 0xbd, 
 0x27, 0x31, 0x2c, 0x3d, 0xe3, 0xe7, 0x1a, 0x3e, 0x92, 0x89, 0x22, 0x3d, 
 0xd4, 0x18, 0xc9, 0xbb, 0x05, 0x81, 0x5b, 0xbe, 0x24, 0x6f, 0x52, 0x3e, 
 0xf6, 0x53, 0xad, 0xbd, 0x1c, 0xb2, 0xce, 0x3c, 0xd1, 0xe5, 0xda, 0x3d, 
 0x0e, 0xac, 0xea, 0x3d, 0x3f, 0x78, 0x36, 0xbe, 0x77, 0x19, 0x6f, 0xbe, 
 0x80, 0x94, 0xf9, 0xbd, 0x9a, 0x44, 0x58, 0x3d, 0xab, 0x1b, 0x35, 0x3d, 
 0x24, 0xed, 0x48, 0x3c, 0x3e, 0xf8, 0x47, 0x3d, 0xa7, 0xe0, 0xbd, 0x3c, 
 0x6d, 0x1b, 0x4f, 0xbe, 0xc5, 0x4a, 0x7b, 0x3d, 0xbd, 0x1f, 0xef, 0xbd, 
 0x7a, 0x10, 0xd4, 0xbd, 0x18, 0xc8, 0xbd, 0xbd, 0x54, 0xd3, 0x66, 0x3e, 
 0xa8, 0x7e, 0x40, 0xbe, 0x51, 0xe0, 0x95, 0xbd, 0xd1, 0x48, 0x4d, 0x3b, 
 0xb3, 0x97, 0x2c, 0xbe, 0x96, 0x3a, 0x31, 0xbe, 0x92, 0x81, 0x06, 0x3e, 
 0x8b, 0x92, 0x13, 0x3e, 0xae, 0x16, 0x6c, 0xbe, 0xcf, 0x24, 0x2b, 0x3e, 
 0xb2, 0x05, 0x53, 0xbd, 0x22, 0xfb, 0x08, 0x3d, 0x1f, 0x43, 0x89, 0x3d, 
 0x09, 0x55, 0x3e, 0x3e, 0x6c, 0x1a, 0x11, 0xbc, 0x17, 0x35, 0xd1, 0x3b, 
 0xe2, 0x29, 0x06, 0xbc, 0x51, 0xb3, 0x31, 0xbe, 0x69, 0x3b, 0x6c, 0x3e, 
 0x7d, 0xd6, 0x24, 0xbe, 0xf4, 0xa6, 0x04, 0xbe, 0x3c, 0x59, 0x11, 0x3e, 
 0xfc, 0x0a, 0xc2, 0xbd, 0x98, 0x37, 0x19, 0x3e, 0x33, 0x49, 0x70, 0x3d, 
 0x27, 0x78, 0x5d, 0x3e, 0x4c, 0x43, 0x6f, 0x3e, 0x88, 0x80, 0x99, 0x3d, 
 0x94, 0xff, 0x27, 0xbd, 0x1a, 0xb6, 0xbe, 0xbd, 0xaf, 0xd0, 0xb8, 0xbd, 
 0xd1, 0x05, 0xe9, 0xbd, 0x15, 0xa6, 0x52, 0x3e, 0x5e, 0xa9, 0x59, 0xbe, 
 0x1c, 0xb1, 0xe7, 0x3d, 0x13, 0xfd, 0x32, 0xbe, 0x2f, 0xfd, 0x2b, 0x3e, 
 0xbc, 0x6f, 0x18, 0x3e, 0x8b, 0x44, 0x5e, 0xbc, 0x2a, 0x4f, 0x57, 0x3e, 
 0x95, 0xae, 0x25, 0x3e, 0x6b, 0x86, 0x24, 0x3d, 0x9e, 0xbc, 0x3b, 0x3e, 
 0x72, 0x82, 0x69, 0xbe, 0x65, 0x77, 0x89, 0xbd, 0xc0, 0xba, 0x14, 0x3e, 
 0xcd, 0xcf, 0xae, 0x3d, 0x1a, 0xca, 0xa1, 0x3d, 0x65, 0x4e, 0xfc, 0x3d, 
 0x93, 0xf4, 0x4e, 0x3e, 0x48, 0xb5, 0x0d, 0xbe, 0x76, 0xb9, 0xf7, 0x3d, 
 0x77, 0x82, 0x78, 0xbd, 0x51, 0xfd, 0x35, 0x3e, 0xa4, 0xeb, 0xef, 0xbd, 
 0x67, 0x77, 0x17, 0x3e, 0x4c, 0x5f, 0x69, 0xbe, 0x52, 0xee, 0xb5, 0x3d, 
 0xc7, 0xb2, 0x21, 0xbe, 0xba, 0xc6, 0x49, 0x3d, 0x64, 0xf4, 0x43, 0x3d, 
 0xaf, 0x85, 0x60, 0xbe, 0x1c, 0x4d, 0x3e, 0x3e, 0x6b, 0x52, 0xbd, 0x3d, 
 0xc1, 0xdb, 0x5b, 0xbe, 0x34, 0xbe, 0xbf, 0x3d, 0xe7, 0x45, 0xfb, 0xbd, 
 0xea, 0x08, 0x7b, 0x3c, 0xc4, 0x94, 0xbf, 0x3d, 0x0f, 0x28, 0x79, 0x3e, 
 0x3a, 0x8a, 0xab, 0x3d, 0xa6, 0x72, 0x25, 0xbe, 0xf5, 0x45, 0x8c, 0x3d, 
 0xa3, 0x82, 0x78, 0xbe, 0x34, 0x3e, 0x03, 0x3e, 0x48, 0x86, 0x17, 0xbe, 
 0x3e, 0xdd, 0x2d, 0xbd, 0x99, 0xe1, 0x77, 0x3d, 0x8b, 0x15, 0x47, 0xbe, 
 0xc2, 0x1b, 0x91, 0xbd, 0x36, 0x4c, 0xe2, 0x3c, 0xd8, 0x40, 0xbb, 0x3c, 
 0xa1, 0x5d, 0x4c, 0xbd, 0xec, 0x1f, 0x95, 0xbd, 0x4f, 0x98, 0x61, 0xbe, 
 0x2d, 0xf9, 0x9d, 0x3d, 0xd2, 0xad, 0x5d, 0xbe, 0xff, 0x4a, 0x46, 0x3e, 
 0xf3, 0x04, 0xd4, 0x3d, 0xd9, 0x5a, 0x86, 0xbd, 0x6c, 0xbe, 0x4a, 0xbd, 
 0x13, 0xe1, 0x35, 0x3e, 0xf9, 0xd5, 0xfd, 0x3d, 0x59, 0x9d, 0xe5, 0xbd, 
 0xad, 0xa7, 0x02, 0x3e, 0x76, 0xf9, 0xf6, 0x3c, 0x5e, 0xb2, 0x78, 0x3e, 
 0x0a, 0x23, 0xda, 0x3d, 0xef, 0x2c, 0x42, 0xbd, 0xcc, 0xa2, 0xcb, 0xbd, 
 0x0b, 0x67, 0xbf, 0xbd, 0xa2, 0xac, 0x39, 0xbe, 0x4e, 0xe4, 0x6f, 0x3e, 
 0x67, 0xc8, 0xfd, 0x3b, 0xa6, 0x22, 0xe8, 0x3d, 0xd5, 0x12, 0x0a, 0x3e, 
 0xb0, 0x99, 0x0d, 0x3d, 0xc9, 0xd5, 0xa3, 0x3d, 0x20, 0xb4, 0x05, 0x3e, 
 0x0b, 0xb1, 0x81, 0x3c, 0xc8, 0xe7, 0x9b, 0x3d, 0xf6, 0xb2, 0xfd, 0xbd, 
 0xa9, 0x9a, 0x79, 0xbd, 0x3f, 0x08, 0xdb, 0xbd, 0xf4, 0x78, 0x82, 0xbe, 
 0x71, 0xdd, 0xcb, 0xbd, 0x1e, 0x11, 0x60, 0x3d, 0x25, 0x46, 0x2a, 0xbe, 
 0xc4, 0x7c, 0x3e, 0x3e, 0xac, 0xb7, 0x01, 0x3d, 0xe2, 0x14, 0x31, 0x3e, 
 0x88, 0x64, 0xc9, 0xbd, 0x7e, 0xe8, 0x64, 0x3e, 0x05, 0x06, 0xb4, 0x3d, 
 0xf4, 0xfd, 0x37, 0xbd, 0xa9, 0xa4, 0x50, 0x3d, 0x92, 0xcc, 0x27, 0x3e, 
 0xd1, 0x33, 0x37, 0xbd, 0xb9, 0x6f, 0xf5, 0xbd, 0x7f, 0xf1, 0x00, 0xbe, 
 0x19, 0x0f, 0x78, 0x3d, 0x5d, 0xf3, 0x42, 0xbe, 0xa0, 0xb5, 0x55, 0xbd, 
 0x85, 0xa5, 0x13, 0x3e, 0x4e, 0xde, 0x12, 0xbe, 0x1b, 0xac, 0x6b, 0xbe, 
 0x05, 0x99, 0x21, 0x3e, 0x60, 0x4c, 0x72, 0x3e, 0x5f, 0x4f, 0x0d, 0x3e, 
 0xbf, 0x2c, 0xb6, 0xbc, 0xd4, 0x7d, 0x0e, 0x3c, 0x7c, 0x51, 0xdd, 0xbc, 
 0xe6, 0x64, 0x44, 0xbd, 0x93, 0x60, 0xac, 0x3d, 0x96, 0xea, 0xb3, 0xbd, 
 0xb6, 0x95, 0xba, 0xbc, 0xb2, 0x71, 0x2f, 0xbe, 0x80, 0xf9, 0xdf, 0xbd, 
 0x2b, 0xf8, 0x50, 0x3e, 0xb5, 0x2a, 0xe1, 0xbd, 0x2c, 0x23, 0x38, 0x3e, 
 0x14, 0xba, 0x2f, 0xbe, 0x5e, 0xb6, 0xa0, 0x3d, 0xfb, 0xfc, 0x08, 0xbe, 
 0x46, 0xd0, 0x7d, 0xbd, 0x36, 0x34, 0xb8, 0xbd, 0x1d, 0x42, 0x78, 0xbe, 
 0x9a, 0xb9, 0x02, 0xbd, 0x52, 0x99, 0x26, 0xbe, 0xb1, 0xdf, 0x08, 0x3e, 
 0xea, 0x44, 0x49, 0xbe, 0xc1, 0x9f, 0x06, 0xbe, 0xa6, 0xe1, 0x89, 0x3d, 
 0x2a, 0x71, 0x6c, 0x3d, 0x40, 0x07, 0x2e, 0x3e, 0x7d, 0x26, 0x35, 0xbe, 
 0x17, 0xb3, 0x05, 0xbd, 0xf7, 0x4f, 0x9b, 0x3b, 0xa3, 0x01, 0x66, 0x3d, 
 0x58, 0x2e, 0x89, 0x3d, 0x05, 0xd5, 0xcf, 0xbd, 0x51, 0x2b, 0xdd, 0xbd, 
 0x57, 0x57, 0xab, 0x3b, 0xdd, 0x06, 0x56, 0x3e, 0xe1, 0x4c, 0x35, 0xbd, 
 0x85, 0x6d, 0x88, 0xbe, 0x63, 0x8e, 0x2c, 0x3e, 0x3e, 0xb6, 0xbd, 0x3d, 
 0x02, 0xc4, 0xc8, 0xbd, 0x59, 0x74, 0x09, 0x3d, 0x49, 0xa8, 0x4c, 0x3e, 
 0x7e, 0xbb, 0xf6, 0xbd, 0xf5, 0x2a, 0x60, 0x3e, 0x73, 0x2a, 0x6a, 0x3c, 
 0xed, 0x61, 0x7a, 0xbd, 0xd3, 0xe3, 0xfc, 0xbd, 0x37, 0x35, 0xfb, 0x3d, 
 0xa4, 0xf3, 0x01, 0xbe, 0x97, 0xbc, 0x57, 0xbd, 0x96, 0x7d, 0x37, 0xbd, 
 0x7b, 0xeb, 0x9c, 0x3d, 0xb7, 0xe2, 0x92, 0x3d, 0xc7, 0x96, 0x7d, 0x3d, 
 0x35, 0xdd, 0x74, 0x3e, 0x6c, 0x77, 0xed, 0xbd, 0x8a, 0x65, 0x9a, 0xbd, 
 0xfd, 0xee, 0x45, 0x3e, 0x59, 0x3c, 0x48, 0x3e, 0xd2, 0x17, 0x28, 0x3e, 
 0xab, 0x2a, 0x52, 0xbe, 0x18, 0x02, 0x70, 0x3d, 0xb5, 0xad, 0x6a, 0x3e, 
 0x34, 0xb9, 0x42, 0x3e, 0x16, 0x54, 0x0d, 0xbe, 0x74, 0x72, 0x9b, 0xbb, 
 0xfe, 0x5a, 0x12, 0x3e, 0x9f, 0xb3, 0x84, 0xbe, 0x25, 0xcc, 0x67, 0xbe, 
 0x3d, 0x3d, 0x7f, 0x3e, 0xec, 0x69, 0x32, 0xbe, 0x11, 0x24, 0xe5, 0xbd, 
 0x63, 0xca, 0x8e, 0x3d, 0xea, 0x7a, 0xe5, 0x3d, 0xb9, 0x51, 0xd6, 0xbd, 
 0x48, 0x36, 0x5e, 0x3d, 0xbd, 0x4f, 0x5b, 0xbe, 0x86, 0x9b, 0xce, 0x3d, 
 0x72, 0x07, 0x85, 0x3d, 0x40, 0x91, 0x70, 0x3d, 0x9e, 0x07, 0x7e, 0xbe, 
 0xf2, 0xd5, 0xff, 0xff, 0x04, 0x00, 0x00, 0x00, 0x00, 0x01, 0x00, 0x00, 
 0xe5, 0x71, 0xac, 0x3b, 0xe0, 0x3b, 0xa8, 0xbb, 0xc2, 0xcb, 0x4a, 0x3a, 
 0x20, 0x62, 0x5e, 0xbc, 0x2d, 0xb1, 0x4e, 0xbb, 0xe8, 0x9a, 0x2d, 0x3b, 
 0xa3, 0xe7, 0xef, 0xbc, 0x59, 0x7e, 0xe1, 0xbc, 0xe7, 0xba, 0x91, 0xbb, 
 0x3a, 0xa6, 0x92, 0x3c, 0x48, 0x1b, 0xc5, 0xbb, 0x00, 0xe1, 0x1d, 0xbc, 
 0x4d, 0x3f, 0x6c, 0xbc, 0x4f, 0x58, 0x0f, 0xbd, 0xa4, 0x40, 0x13, 0xbc, 
 0xb3, 0x88, 0x1b, 0xbd, 0xd5, 0xb3, 0xa6, 0xbb, 0xb3, 0x16, 0x7a, 0x3c, 
 0x6c, 0x69, 0x93, 0x3b, 0x00, 0x6e, 0xe6, 0x3b, 0xaf, 0x34, 0x38, 0xbc, 
 0x03, 0x9b, 0x00, 0x3d, 0x1e, 0x03, 0x91, 0xbb, 0xd9, 0x65, 0x32, 0xbd, 
 0xac, 0xbb, 0x4e, 0xbc, 0xd0, 0x49, 0x8d, 0xbc, 0xfd, 0xb8, 0x5e, 0xbc, 
 0x99, 0x59, 0x72, 0xbb, 0x3a, 0x23, 0xbc, 0xbc, 0x45, 0x0f, 0x15, 0xbc, 
 0xa2, 0xe0, 0xae, 0xbc, 0x2a, 0xe6, 0x6f, 0xbb, 0x5c, 0xa9, 0xc5, 0xbc, 
 0x56, 0xb1, 0x51, 0x3c, 0xa6, 0x1b, 0xe2, 0xbc, 0x08, 0x03, 0xfc, 0x3a, 
 0xf6, 0xfb, 0xa9, 0x3b, 0x1d, 0x27, 0x06, 0xbd, 0x60, 0xd7, 0xee, 0xbc, 
 0xa7, 0xbd, 0x31, 0xbd, 0xdc, 0x56, 0x4d, 0x3d, 0xf1, 0x34, 0x96, 0xb9, 
 0x58, 0x3e, 0x52, 0xbc, 0xcd, 0x5f, 0xf4, 0xbc, 0x93, 0x76, 0x94, 0xbc, 
 0x4c, 0x6a, 0x70, 0xbc, 0xab, 0x94, 0xb1, 0xbc, 0x11, 0xf0, 0xa8, 0xbc, 
 0x9d, 0x1d, 0x6e, 0xba, 0x6f, 0x53, 0x76, 0xbc, 0x86, 0x8a, 0x3d, 0x3b, 
 0xaf, 0x02, 0xda, 0xbc, 0x09, 0xd6, 0xd2, 0x3b, 0xc5, 0xec, 0x93, 0xbc, 
 0xe0, 0x95, 0x52, 0xbd, 0xea, 0xec, 0x92, 0xbc, 0x5b, 0x9e, 0xb8, 0xbb, 
 0x71, 0x4d, 0x08, 0xbd, 0x28, 0x74, 0xaf, 0xbc, 0x08, 0xd6, 0xeb, 0xbc, 
 0x29, 0xcd, 0x98, 0xbc, 0x8e, 0xf6, 0x92, 0xbc, 0x66, 0xd3, 0x02, 0xbd, 
 0xa6, 0x42, 0x05, 0xbd, 0xfe, 0xd6, 0xff, 0xff, 0x04, 0x00, 0x00, 0x00, 
 0x80, 0x00, 0x00, 0x00, 0x97, 0x56, 0x59, 0xbc, 0xfa, 0x83, 0x04, 0xbc, 
 0x5e, 0x09, 0x24, 0xbc, 0x5a, 0x47, 0x78, 0x3b, 0x41, 0x0b, 0xef, 0xbb, 
 0x4e, 0xe4, 0x49, 0xbc, 0x3e, 0xad, 0x02, 0xbc, 0x9c, 0xb1, 0x2a, 0xb9, 
 0x9e, 0x23, 0xbb, 0x3a, 0x9b, 0x84, 0x48, 0xbc, 0x8f, 0x07, 0x27, 0xbc, 
 0x32, 0x85, 0x48, 0x3c, 0x90, 0xcd, 0x8d, 0xbb, 0xea, 0xf6, 0x90, 0xbc, 
 0x33, 0x89, 0x67, 0xbc, 0x90, 0x9f, 0x06, 0xbc, 0x3c, 0xbc, 0x3b, 0xbc, 
 0x11, 0x8e, 0xd2, 0xbc, 0xc0, 0x92, 0x55, 0x3c, 0x02, 0xe8, 0x5f, 0x3b, 
 0x42, 0xfb, 0x48, 0xbc, 0x16, 0xa6, 0x36, 0xbc, 0xf3, 0x80, 0x3d, 0x3b, 
 0x2a, 0xff, 0xba, 0xbc, 0x18, 0xa1, 0x84, 0xbb, 0xa1, 0xdc, 0x01, 0xbb, 
 0x23, 0xc5, 0xa3, 0xbc, 0xd0, 0x77, 0xcc, 0xbc, 0xd9, 0x24, 0xb2, 0xbc, 
 0x1c, 0x5d, 0x8a, 0x3b, 0x29, 0x7e, 0x8c, 0xbc, 0x10, 0x23, 0x90, 0x3b, 
 0x8a, 0xd7, 0xff, 0xff, 0x04, 0x00, 0x00, 0x00, 0x40, 0x00, 0x00, 0x00, 
 0x3a, 0xb1, 0xf4, 0xbb, 0x80, 0xd5, 0x68, 0xbc, 0x1c, 0x7a, 0x18, 0xbb, 
 0xbf, 0xe2, 0xcd, 0x3c, 0x7a, 0xe3, 0x29, 0xbc, 0x0c, 0xf4, 0x81, 0x3c, 
 0x9e, 0xfa, 0xa2, 0xbc, 0x3b, 0x97, 0x29, 0xbc, 0x64, 0xac, 0x62, 0xbc, 
 0x38, 0xa5, 0x36, 0xbd, 0xaa, 0x98, 0x2b, 0x3c, 0x83, 0xc4, 0xd9, 0x3c, 
 0xce, 0x4e, 0xb5, 0xbc, 0x0f, 0x7e, 0xab, 0xbc, 0xce, 0xca, 0xc5, 0xbc, 
 0x35, 0x5c, 0xab, 0xbb, 0xd6, 0xd7, 0xff, 0xff, 0x04, 0x00, 0x00, 0x00, 
 0x04, 0x00, 0x00, 0x00, 0xb1, 0x45, 0x7e, 0x3c, 0xe6, 0xd7, 0xff, 0xff, 
 0x04, 0x00, 0x00, 0x00, 0x00, 0x20, 0x00, 0x00, 0x29, 0x33, 0x93, 0xbc, 
 0xcc, 0x9d, 0xe1, 0xbd, 0x54, 0xc2, 0x06, 0xbe, 0x65, 0xf3, 0xaf, 0x3d, 
 0x04, 0x3d, 0x29, 0xbe, 0x65, 0xf7, 0x25, 0xbe, 0xd9, 0x4a, 0x98, 0x3d, 
 0x46, 0x93, 0x86, 0x3d, 0xda, 0x20, 0x9f, 0x3d, 0xa2, 0x5a, 0x2e, 0xbe, 
 0xd6, 0x5d, 0x18, 0xbd, 0xd4, 0x05, 0x33, 0x3d, 0x3c, 0x0e, 0x12, 0x3e, 
 0xf5, 0x68, 0xdd, 0x3c, 0x9c, 0x6d, 0x5c, 0x3e, 0x5c, 0x07, 0xb0, 0x3d, 
 0x69, 0xf8, 0xbd, 0xbd, 0xb8, 0xe2, 0xd0, 0xbd, 0x73, 0x34, 0xf5, 0x3d, 
 0xc6, 0xb1, 0x1b, 0xbd, 0x33, 0x03, 0xe8, 0x3d, 0x84, 0xf0, 0xe9, 0xbc, 
 0x2c, 0x3d, 0x50, 0xbd, 0x03, 0x9c, 0x12, 0x3e, 0x4f, 0x2a, 0x07, 0x3d, 
 0x43, 0x5e, 0x3f, 0xbe, 0x8d, 0xc5, 0x3b, 0x3d, 0xc2, 0x3a, 0x32, 0x3e, 
 0x30, 0x2a, 0x99, 0xbc, 0xc6, 0xdc, 0x9e, 0xbd, 0xe6, 0xc1, 0x2b, 0xbd, 
 0x76, 0x1f, 0x36, 0xbe, 0x4c, 0x46, 0x21, 0x3d, 0xa8, 0x36, 0xdf, 0x3d, 
 0x68, 0x46, 0xd6, 0xbc, 0xd2, 0x12, 0x24, 0xbe, 0x22, 0x1c, 0x25, 0x3e, 
 0x95, 0xf0, 0xfe, 0x3d, 0x67, 0xa4, 0xf1, 0x3d, 0x67, 0x62, 0x05, 0xbe, 
 0x84, 0x19, 0x1b, 0xbe, 0x67, 0x99, 0x83, 0xbd, 0x61, 0xcd, 0x1e, 0x3e, 
 0x45, 0xdc, 0xf3, 0xba, 0x03, 0xd0, 0xd9, 0x3d, 0xb7, 0xad, 0x13, 0x3d, 
 0x9c, 0x54, 0x59, 0x3e, 0x65, 0xf9, 0xdb, 0x3d, 0x6e, 0x92, 0x05, 0xbd, 
 0x48, 0x46, 0x35, 0xbc, 0xc3, 0x83, 0x83, 0x3c, 0x20, 0xbf, 0xe0, 0x3d, 
 0x3c, 0x3d, 0xd5, 0xbd, 0x37, 0xa1, 0xca, 0x3c, 0x48, 0xf2, 0x83, 0x3d, 
 0x44, 0x07, 0x41, 0x3d, 0x71, 0xd0, 0x43, 0x3e, 0xea, 0xb6, 0xb7, 0x3d, 
 0x85, 0xc6, 0xe0, 0xbd, 0xc2, 0x21, 0x74, 0x3d, 0x3f, 0x2d, 0xa9, 0x3d, 
 0x21, 0x66, 0xa4, 0x3d, 0xdc, 0x98, 0x71, 0xbe, 0xe2, 0xf4, 0xaf, 0xbc, 
 0xfe, 0xac, 0xbe, 0x3d, 0x7d, 0xb3, 0x8e, 0x3d, 0xd1, 0xad, 0x1f, 0x3e, 
 0x59, 0x2d, 0x90, 0x3d, 0x14, 0xc1, 0x82, 0xbd, 0x67, 0x5b, 0x1a, 0x39, 
 0x23, 0xdc, 0xa0, 0xbc, 0x5b, 0x9c, 0x12, 0xbd, 0x72, 0xf5, 0xc5, 0xbd, 
 0x02, 0xea, 0x09, 0x3e, 0xfb, 0xfa, 0x83, 0x3d, 0xed, 0x42, 0xb7, 0x3c, 
 0xf5, 0x7a, 0xba, 0x3d, 0xb3, 0x33, 0x16, 0x3e, 0x42, 0x9d, 0xeb, 0xbd, 
 0x12, 0xfd, 0x2d, 0xbe, 0xd9, 0x13, 0x68, 0xbd, 0x4e, 0xbe, 0xf6, 0xbc, 
 0x97, 0x6f, 0x83, 0x3c, 0xe1, 0x04, 0xdf, 0xbd, 0x78, 0x24, 0x60, 0x3b, 
 0x99, 0x55, 0xe2, 0xbc, 0x5e, 0xb0, 0xf7, 0x3d, 0x1f, 0xc8, 0x37, 0xbc, 
 0x6a, 0xe9, 0x05, 0xbe, 0x64, 0xf5, 0x0f, 0x3e, 0x64, 0x88, 0xe2, 0xbd, 
 0x1e, 0xd0, 0xac, 0xbd, 0x4c, 0x13, 0x0d, 0xbe, 0x6d, 0x05, 0x60, 0x3c, 
 0x43, 0x86, 0xe6, 0xbc, 0x3b, 0x8f, 0x4e, 0x3c, 0x7a, 0x1b, 0x8d, 0x3d, 
 0x58, 0x4f, 0x03, 0xbd, 0x90, 0x8a, 0x2a, 0x3e, 0x2a, 0x98, 0xe3, 0xbd, 
 0x20, 0x66, 0x1f, 0x3e, 0xa7, 0xf8, 0x38, 0xbe, 0x66, 0xac, 0x48, 0x3d, 
 0x2c, 0x72, 0xc6, 0xbd, 0x9f, 0x63, 0xbc, 0xbc, 0x8f, 0x3d, 0x7a, 0xbd, 
 0x32, 0x9e, 0xbd, 0x3d, 0xc0, 0xd8, 0xfa, 0xbd, 0x03, 0x1a, 0x78, 0xbc, 
 0x63, 0x27, 0x70, 0xbd, 0xf1, 0x30, 0x82, 0x3d, 0x12, 0xa5, 0x55, 0x3d, 
 0xb3, 0xe8, 0x94, 0x3c, 0x5d, 0xeb, 0x85, 0x3d, 0x04, 0x82, 0xf1, 0xbd, 
 0x5e, 0x44, 0x44, 0xbd, 0xb7, 0x24, 0xe1, 0xbc, 0x8e, 0x96, 0xd9, 0xbb, 
 0x4a, 0x89, 0xec, 0xbd, 0x2f, 0xab, 0xa9, 0xba, 0x37, 0x68, 0x0c, 0xbe, 
 0xbd, 0x5f, 0x42, 0xbd, 0xbf, 0xfe, 0x39, 0x3d, 0x24, 0x71, 0xce, 0xbb, 
 0xac, 0xa4, 0x38, 0xbd, 0x52, 0xab, 0xfa, 0xbc, 0x2c, 0x9f, 0x7c, 0x3d, 
 0x25, 0xd7, 0x34, 0xbd, 0x8f, 0xdd, 0x42, 0xbb, 0xd8, 0xdc, 0x3f, 0xbd, 
 0xb1, 0xc5, 0xd9, 0x3c, 0x77, 0xec, 0x42, 0xbe, 0x4f, 0x2b, 0x79, 0xbb, 
 0xbf, 0x10, 0x2c, 0x3d, 0x62, 0x6f, 0x50, 0x3d, 0xb7, 0xb7, 0x4f, 0x3e, 
 0xd1, 0x71, 0xf4, 0x3d, 0x56, 0x27, 0x8f, 0xbd, 0x19, 0x2b, 0x1e, 0xba, 
 0x01, 0x59, 0x27, 0x3b, 0x0b, 0x4b, 0x0a, 0x3b, 0xbe, 0xfa, 0x9a, 0xbc, 
 0xdf, 0x4d, 0x7c, 0xbe, 0x4c, 0x0f, 0xe1, 0xbd, 0xba, 0x77, 0x92, 0xbd, 
 0x76, 0xd0, 0xd6, 0x3b, 0x76, 0x90, 0xf1, 0x3a, 0xfb, 0x16, 0x22, 0xbe, 
 0xd6, 0xaa, 0x35, 0xbe, 0x46, 0xea, 0x9d, 0xbd, 0xec, 0xcc, 0x0e, 0xbc, 
 0x72, 0x70, 0xdf, 0x3d, 0xee, 0xb0, 0xa9, 0xbb, 0x53, 0x30, 0x41, 0xbe, 
 0x1a, 0x67, 0x10, 0x3e, 0xa3, 0x73, 0xc0, 0xbd, 0x7f, 0xb1, 0x42, 0xb9, 
 0xce, 0x7d, 0x72, 0xbd, 0x46, 0xf8, 0x65, 0xbc, 0x52, 0xa2, 0x78, 0xbd, 
 0xe0, 0x36, 0xca, 0x3d, 0x83, 0x37, 0xf6, 0xbb, 0x63, 0xb0, 0xfa, 0xbd, 
 0x6e, 0xcc, 0xfe, 0xbc, 0x30, 0x7c, 0x06, 0x39, 0x3f, 0xc0, 0x83, 0xbb, 
 0xa6, 0xb9, 0xac, 0xba, 0x7d, 0xf4, 0x6e, 0xbd, 0x18, 0x76, 0x31, 0xbd, 
 0xe8, 0xf1, 0x5e, 0xb9, 0xc9, 0x42, 0xb7, 0xbd, 0x22, 0xb5, 0x9c, 0xbd, 
 0xf5, 0x88, 0x82, 0x3d, 0xd8, 0x09, 0xcb, 0x3d, 0xc8, 0x76, 0x11, 0x3e, 
 0x89, 0x1e, 0x98, 0xbd, 0x33, 0x39, 0xcd, 0xba, 0xcf, 0x51, 0x07, 0xbe, 
 0xef, 0xb6, 0x24, 0x3e, 0x13, 0x94, 0xb0, 0xbc, 0xa0, 0x74, 0x39, 0x3d, 
 0x97, 0xa3, 0xcc, 0xbb, 0x7c, 0xf0, 0xa0, 0xbc, 0xb3, 0xdd, 0x9f, 0x3d, 
 0x5a, 0x86, 0x37, 0xbe, 0x95, 0x2b, 0x29, 0x3e, 0x65, 0xba, 0xd6, 0x3d, 
 0x4c, 0xac, 0x5c, 0x3d, 0xaf, 0x88, 0x94, 0x3d, 0xd5, 0x90, 0x8c, 0x3c, 
 0xeb, 0xe8, 0xdc, 0x3d, 0x25, 0xdf, 0xbd, 0x3d, 0x32, 0x52, 0x41, 0x3e, 
 0xd9, 0x4f, 0x40, 0x3e, 0xce, 0xab, 0x30, 0xbe, 0x9b, 0xa2, 0xfd, 0xbd, 
 0x91, 0x41, 0xf5, 0x3d, 0x7d, 0xfe, 0x87, 0xbd, 0xc1, 0x05, 0x04, 0xbe, 
 0x13, 0xaf, 0x46, 0x3e, 0xd5, 0xb1, 0x11, 0x3e, 0x52, 0x63, 0x88, 0x3d, 
 0xc8, 0x1e, 0x3d, 0xbe, 0x0a, 0xa6, 0x15, 0xbd, 0x9d, 0x5b, 0xaf, 0x3d, 
 0x91, 0xab, 0xc6, 0x3d, 0xee, 0xa4, 0xeb, 0x3d, 0x44, 0x61, 0xa9, 0xbd, 
 0x85, 0x0f, 0x0d, 0xbe, 0x78, 0x73, 0x75, 0xbe, 0x8c, 0x12, 0x36, 0x3e, 
 0x1d, 0xe2, 0x1b, 0x3e, 0xc1, 0x85, 0x28, 0x3e, 0x10, 0x3d, 0x41, 0x3e, 
 0x38, 0x4d, 0x08, 0x3e, 0x4f, 0xef, 0x90, 0x3d, 0x94, 0x9b, 0xca, 0xbc, 
 0x59, 0x98, 0x4e, 0x3e, 0x3e, 0x38, 0xcb, 0x3d, 0x37, 0x73, 0xba, 0x3c, 
 0xc2, 0xfc, 0x09, 0x3e, 0x54, 0xf9, 0x9d, 0xbd, 0xfe, 0x6c, 0xf4, 0x3d, 
 0x24, 0x2e, 0x11, 0x3b, 0x77, 0x6b, 0x99, 0x3d, 0x58, 0x2d, 0xfd, 0xbd, 
 0xab, 0x78, 0x2a, 0xbe, 0x64, 0x82, 0x12, 0xbe, 0xb1, 0x62, 0x61, 0x3d, 
 0xf3, 0x40, 0x41, 0xbd, 0xd6, 0x1e, 0x3b, 0xbe, 0xff, 0x8c, 0x20, 0xbd, 
 0x3f, 0x54, 0xf3, 0x3d, 0x96, 0x0e, 0x10, 0x3e, 0x5c, 0xde, 0x66, 0xbd, 
 0xa5, 0x5f, 0x0b, 0xbe, 0xbf, 0x0a, 0x48, 0x3e, 0x1f, 0x4b, 0x1a, 0x3e, 
 0xe7, 0x64, 0x36, 0x3e, 0xe7, 0x76, 0x98, 0xbd, 0x78, 0x83, 0x17, 0x3e, 
 0x55, 0x40, 0x7c, 0xbd, 0xa5, 0xef, 0x21, 0x3d, 0xe3, 0xc1, 0x0f, 0x3e, 
 0xb5, 0x2e, 0x94, 0x3d, 0xfc, 0xe0, 0x50, 0x3e, 0x97, 0x2e, 0xf7, 0xbd, 
 0x94, 0xf3, 0xb9, 0xbd, 0x9c, 0xcc, 0x90, 0xbd, 0xcb, 0x27, 0x26, 0xbd, 
 0xbd, 0x50, 0xfc, 0xbd, 0x97, 0x1e, 0x2a, 0x3d, 0x06, 0xe5, 0x73, 0x3e, 
 0x3e, 0x24, 0x2e, 0x3e, 0x58, 0xd1, 0x35, 0xbe, 0x9a, 0xee, 0x70, 0x3d, 
 0x4e, 0xc8, 0x0e, 0xbd, 0xd3, 0xbf, 0xf1, 0xbd, 0x89, 0x3a, 0xab, 0xbd, 
 0x78, 0xfa, 0xc2, 0x3a, 0x0a, 0x27, 0x04, 0x3d, 0xfb, 0x30, 0x95, 0xbc, 
 0xa3, 0x2f, 0xbc, 0xbc, 0x0b, 0xfc, 0xb0, 0xbd, 0x9a, 0x0f, 0xd1, 0xbb, 
 0xed, 0x7d, 0x05, 0x3e, 0xc6, 0x2e, 0x37, 0x3d, 0x37, 0x7d, 0x88, 0xbd, 
 0x97, 0x0a, 0x24, 0x3e, 0xb2, 0x87, 0x84, 0xbd, 0x82, 0x2f, 0xdd, 0xbd, 
 0x8e, 0x63, 0x82, 0x3c, 0x9a, 0x7d, 0x61, 0xbd, 0x3d, 0x08, 0x0a, 0x3d, 
 0xf1, 0x49, 0x3f, 0xbd, 0x7b, 0x56, 0xbe, 0xbd, 0xb0, 0x0f, 0xa7, 0x3d, 
 0xb0, 0xf0, 0x1a, 0xbc, 0x11, 0xb6, 0xdb, 0x3b, 0x7c, 0x21, 0xad, 0x3b, 
 0x84, 0x87, 0x7a, 0xbc, 0x07, 0x2b, 0x33, 0x3d, 0x48, 0x8f, 0xbf, 0xbd, 
 0x3b, 0x4f, 0x88, 0xbd, 0x37, 0x15, 0x00, 0xbc, 0x1b, 0xa2, 0xd4, 0x3c, 
 0x0f, 0xa4, 0xa4, 0x3d, 0x78, 0x1e, 0x60, 0xbd, 0xf0, 0xaa, 0xd3, 0xbd, 
 0x6b, 0x1a, 0x19, 0x3e, 0x81, 0xcf, 0xb0, 0xbd, 0x31, 0x1e, 0xbf, 0xbd, 
 0x66, 0x14, 0xf3, 0x3b, 0xcc, 0x43, 0x1a, 0x3e, 0x2e, 0xa6, 0x81, 0xbb, 
 0x32, 0x13, 0x33, 0x3e, 0x03, 0x36, 0x94, 0xbc, 0x66, 0xd8, 0x80, 0x38, 
 0xd6, 0x38, 0x09, 0x3e, 0xc4, 0x00, 0xce, 0xbd, 0xee, 0x0a, 0x2e, 0x3c, 
 0xa2, 0x85, 0xf9, 0xbc, 0x6a, 0x59, 0x66, 0xbd, 0x17, 0xa8, 0xbf, 0x3d, 
 0x77, 0xa5, 0x09, 0xbe, 0xf1, 0x7a, 0xaf, 0xbd, 0x8d, 0x88, 0x18, 0xbc, 
 0x8d, 0x94, 0x8c, 0x3c, 0xff, 0xf7, 0xc2, 0x3d, 0x19, 0x47, 0xa8, 0xb9, 
 0xb0, 0x34, 0xb5, 0xbb, 0x38, 0x85, 0xe3, 0xbc, 0xbd, 0xe4, 0x47, 0xbe, 
 0x28, 0x4e, 0x12, 0x3d, 0x26, 0xe8, 0x23, 0xbd, 0x22, 0x08, 0x1f, 0x3e, 
 0x51, 0x7a, 0x48, 0x3e, 0xa5, 0xb7, 0xb3, 0xbd, 0x24, 0x8e, 0xbe, 0x3d, 
 0x51, 0x4a, 0x0b, 0x3d, 0xf7, 0x0b, 0x9f, 0xbd, 0x94, 0x28, 0x35, 0x3d, 
 0xef, 0xea, 0xb8, 0xbd, 0xaf, 0x1f, 0xb1, 0x3d, 0x87, 0xea, 0x95, 0x3d, 
 0x3a, 0xda, 0x1b, 0xbe, 0x31, 0x9f, 0x6b, 0xbd, 0x26, 0x32, 0x38, 0x3e, 
 0x97, 0xca, 0x1b, 0xbd, 0xb3, 0x05, 0x79, 0xbd, 0x77, 0x70, 0x54, 0x3d, 
 0x24, 0x0b, 0x32, 0x3e, 0x72, 0xb8, 0x47, 0x3e, 0x38, 0x5e, 0xf0, 0xbc, 
 0xc0, 0x69, 0x68, 0xbe, 0x17, 0x81, 0xa8, 0xbd, 0x01, 0x6b, 0x2a, 0x3d, 
 0xf1, 0x0a, 0x55, 0xbb, 0xfc, 0xb6, 0x93, 0xbd, 0x75, 0x69, 0x18, 0xbd, 
 0x4b, 0x81, 0xd2, 0xbd, 0xc2, 0xe6, 0x8e, 0xbd, 0xe3, 0xfa, 0xd2, 0x3d, 
 0xf1, 0xf1, 0x02, 0xbd, 0x24, 0xdf, 0x8e, 0xbc, 0x02, 0x01, 0x33, 0xbc, 
 0xff, 0x92, 0x9b, 0x3c, 0x16, 0xf5, 0x76, 0xbc, 0xad, 0xde, 0xd4, 0xbd, 
 0x12, 0x80, 0x36, 0x3d, 0x70, 0x3f, 0x15, 0x3e, 0x4d, 0x80, 0xf0, 0xbd, 
 0xe2, 0xd1, 0x52, 0x3e, 0x8d, 0x4f, 0xf8, 0xba, 0xa3, 0x08, 0x94, 0xbc, 
 0x0f, 0x33, 0x13, 0x3b, 0x4e, 0x6f, 0x1d, 0xbe, 0x18, 0x99, 0xdf, 0x3c, 
 0x0a, 0x8a, 0xe8, 0x39, 0x21, 0x7f, 0x53, 0xbd, 0x16, 0x52, 0x15, 0x3e, 
 0x55, 0xd2, 0x3b, 0x3e, 0xcd, 0xf3, 0xbd, 0x3d, 0x78, 0xf9, 0x52, 0xbd, 
 0x22, 0x65, 0x68, 0x3b, 0x0b, 0x6f, 0x89, 0x3d, 0xbe, 0x51, 0x2a, 0xbe, 
 0x3c, 0xd0, 0x9c, 0xbd, 0x75, 0xad, 0xbc, 0x3c, 0x4e, 0x45, 0x34, 0xbd, 
 0xdb, 0x57, 0x0a, 0xbe, 0x49, 0x38, 0xd6, 0xba, 0x5e, 0x65, 0x14, 0x3e, 
 0xa1, 0xf6, 0x83, 0x3d, 0x2b, 0xd0, 0x0a, 0x3e, 0x5b, 0x5f, 0xb1, 0xbd, 
 0x73, 0x13, 0x04, 0x3c, 0xe8, 0x6f, 0xc5, 0x3d, 0x63, 0xc6, 0x34, 0x3d, 
 0xc3, 0x66, 0xaf, 0x3d, 0x9d, 0x69, 0xa7, 0xbd, 0x33, 0x6b, 0xf4, 0xbc, 
 0x48, 0x66, 0x46, 0x3e, 0x92, 0x85, 0x73, 0xbe, 0x98, 0x84, 0xd1, 0xbc, 
 0xec, 0x5a, 0xb7, 0xbd, 0xfc, 0x83, 0x0c, 0xbc, 0x08, 0x08, 0x32, 0xbd, 
 0xa5, 0x36, 0xb8, 0x3d, 0x32, 0xa9, 0xe8, 0x3b, 0x86, 0xfd, 0x9a, 0xbd, 
 0xd3, 0x45, 0x11, 0xbe, 0x5c, 0x7a, 0x03, 0xbe, 0xc3, 0x10, 0xec, 0x3d, 
 0x93, 0x90, 0x62, 0xbd, 0x54, 0x1e, 0xff, 0xbc, 0xe6, 0x7d, 0xef, 0xbb, 
 0x53, 0x55, 0x10, 0xbe, 0xfd, 0x08, 0x8a, 0xbd, 0xa2, 0x27, 0x4f, 0xbc, 
 0x50, 0x22, 0x3e, 0xbb, 0xba, 0x82, 0xc0, 0x3c, 0x7c, 0xee, 0x05, 0x3d, 
 0x1b, 0x52, 0x69, 0x3b, 0x78, 0x77, 0xce, 0x3d, 0x83, 0xab, 0xf1, 0x3c, 
 0x56, 0x52, 0x27, 0x3a, 0x8d, 0xdf, 0xff, 0xbd, 0x49, 0xc6, 0xdb, 0xbb, 
 0xdf, 0x20, 0x66, 0xbd, 0x11, 0x27, 0xe2, 0xbc, 0x29, 0x98, 0x3d, 0xbb, 
 0x2f, 0x4b, 0x28, 0xbd, 0x55, 0xf4, 0xe9, 0xbb, 0x85, 0xaa, 0x3e, 0xbd, 
 0x79, 0xaf, 0xb6, 0x3d, 0xa2, 0xc3, 0xa3, 0x3d, 0xea, 0xf5, 0xa6, 0x3d, 
 0x18, 0x3e, 0x74, 0xbd, 0xe8, 0x99, 0xc6, 0x3d, 0x7c, 0x1f, 0x0d, 0x3d, 
 0x91, 0x40, 0xa7, 0xbc, 0xc2, 0xde, 0xbd, 0xbb, 0x3f, 0x8e, 0x75, 0x3b, 
 0xdd, 0x99, 0x69, 0x3b, 0x79, 0x1a, 0x60, 0xbd, 0xc8, 0xc8, 0xe2, 0x3d, 
 0xcf, 0x4a, 0x54, 0x3e, 0xa9, 0xcc, 0x96, 0xbc, 0x3a, 0xa3, 0x0b, 0x3e, 
 0xec, 0x25, 0x11, 0xbd, 0xe2, 0xfb, 0x25, 0xbe, 0x82, 0x3d, 0xef, 0xbd, 
 0xe8, 0xb5, 0x86, 0x3b, 0xd9, 0xf0, 0x4f, 0xbd, 0x75, 0xba, 0x19, 0x3c, 
 0x29, 0x14, 0x4a, 0xbd, 0xb6, 0x7f, 0x02, 0xbd, 0x54, 0x77, 0x91, 0xbc, 
 0x96, 0x2b, 0x1a, 0xb9, 0x22, 0x42, 0x77, 0x3c, 0x62, 0x17, 0x2f, 0xbe, 
 0x99, 0xa3, 0xf8, 0xbc, 0x17, 0xf7, 0x81, 0xbc, 0x54, 0x25, 0x46, 0x3e, 
 0x48, 0xe8, 0xbc, 0x3d, 0xcf, 0xbe, 0x19, 0x3d, 0xa8, 0xb2, 0x09, 0x3d, 
 0xa2, 0xbc, 0x1d, 0xbe, 0x1c, 0x52, 0x23, 0x3d, 0xb0, 0x25, 0x8c, 0xbd, 
 0xa0, 0x0b, 0xd4, 0x3c, 0xcb, 0xf3, 0xd4, 0x3d, 0xf0, 0x06, 0x01, 0x3d, 
 0x2b, 0x6b, 0x1b, 0x3e, 0x8d, 0xb2, 0x03, 0x3e, 0x5d, 0x3c, 0x40, 0x3d, 
 0x31, 0x49, 0x47, 0x3e, 0x08, 0xad, 0xfe, 0x3d, 0x30, 0x9b, 0x8f, 0xbc, 
 0x13, 0x76, 0x04, 0x3e, 0x26, 0x88, 0x1c, 0xbe, 0x2a, 0x2d, 0xa6, 0x3d, 
 0xda, 0xba, 0x90, 0x3d, 0xed, 0xf9, 0x25, 0xbe, 0x99, 0x87, 0x26, 0x3e, 
 0xb2, 0x50, 0x12, 0x3e, 0xe2, 0x24, 0x29, 0x3b, 0x8a, 0xa3, 0x4c, 0x3c, 
 0xd4, 0x48, 0x09, 0xbd, 0xd2, 0xb2, 0x11, 0x3e, 0xf8, 0xe5, 0x0d, 0xbe, 
 0x70, 0xfe, 0x6a, 0x3c, 0x56, 0x8a, 0x93, 0xbd, 0x3f, 0xdf, 0x94, 0xbd, 
 0xf4, 0x05, 0xef, 0xbd, 0x6e, 0x1e, 0x30, 0xbe, 0x88, 0x77, 0xe1, 0x3d, 
 0x9e, 0x38, 0x1c, 0xbc, 0x46, 0xcf, 0xc0, 0x3d, 0x39, 0x4f, 0x42, 0xbe, 
 0xa3, 0xb8, 0x39, 0xbe, 0x4b, 0xc3, 0x10, 0x3e, 0x94, 0xfe, 0x01, 0xbe, 
 0xf5, 0x36, 0x4c, 0x3d, 0x9a, 0xb9, 0xd4, 0x3d, 0x3e, 0xd3, 0x1f, 0xbe, 
 0x84, 0x85, 0x1f, 0xbd, 0x4e, 0x3a, 0xac, 0xbd, 0xe8, 0xec, 0x11, 0xbe, 
 0xb6, 0xfa, 0x36, 0x3d, 0xe6, 0x51, 0x2d, 0xbd, 0x36, 0x68, 0xa9, 0x3d, 
 0xaa, 0xc5, 0xc7, 0x3d, 0x94, 0xeb, 0x44, 0xbd, 0x2d, 0xbe, 0x4f, 0x3e, 
 0x17, 0x4a, 0x8d, 0xbd, 0x4b, 0xc7, 0x1f, 0xbe, 0x48, 0xa7, 0x2f, 0xbe, 
 0x71, 0x00, 0x07, 0x3e, 0x09, 0x57, 0xb3, 0xbd, 0xeb, 0xbb, 0x3a, 0x3e, 
 0x3b, 0x61, 0xac, 0x3d, 0x0e, 0x62, 0x24, 0x3d, 0xf0, 0xc9, 0x29, 0xbe, 
 0x55, 0x84, 0xaa, 0xbd, 0xf4, 0x7e, 0xb5, 0xbc, 0x47, 0x61, 0x2e, 0xbe, 
 0x34, 0x60, 0x05, 0x3d, 0x68, 0x6a, 0x9d, 0xbc, 0xbe, 0xce, 0x4d, 0x3e, 
 0x1f, 0x57, 0x13, 0xbe, 0xcc, 0x8d, 0x9a, 0xbc, 0xce, 0x81, 0x80, 0x3d, 
 0x0c, 0xc6, 0xf8, 0xbc, 0xbf, 0x70, 0x2f, 0xbd, 0x2a, 0x85, 0xac, 0x3d, 
 0x66, 0x1a, 0x9b, 0x3d, 0x69, 0x82, 0x2a, 0x3d, 0x63, 0x7f, 0x04, 0xbe, 
 0x41, 0x06, 0x66, 0xbc, 0xfb, 0x80, 0x9d, 0xbd, 0x3c, 0xf2, 0x3c, 0xbc, 
 0x03, 0xda, 0xfe, 0xbc, 0x62, 0x1f, 0xe4, 0x3b, 0x75, 0xcf, 0x1a, 0xbd, 
 0xd6, 0x78, 0x33, 0x3d, 0x08, 0xd1, 0x95, 0xbc, 0x86, 0xb2, 0xbb, 0xbc, 
 0x00, 0x1f, 0x2f, 0xbd, 0x80, 0x4f, 0x0c, 0xbc, 0x68, 0xc1, 0x18, 0xbc, 
 0x9f, 0x99, 0x04, 0x3e, 0x42, 0xb1, 0x89, 0xbd, 0xed, 0xb2, 0x1e, 0xbc, 
 0xb3, 0x90, 0x23, 0xbd, 0xb6, 0x5e, 0xb0, 0xbb, 0x16, 0x0e, 0x37, 0xbe, 
 0x23, 0x1f, 0x42, 0x3e, 0xbe, 0x27, 0x3a, 0xbd, 0x8e, 0xa3, 0xf7, 0x3c, 
 0xa6, 0xe2, 0x7b, 0xbc, 0xd6, 0x4a, 0xec, 0xbb, 0x44, 0x44, 0xf3, 0xbd, 
 0x44, 0x99, 0x82, 0xbc, 0x63, 0x23, 0x43, 0xbc, 0xed, 0xa7, 0x75, 0xbd, 
 0x03, 0x24, 0x8c, 0xbc, 0xaa, 0x0e, 0xbb, 0xbb, 0xaf, 0x66, 0xc2, 0x3d, 
 0x37, 0x65, 0x19, 0x3b, 0x82, 0xa3, 0x08, 0x3e, 0x78, 0x10, 0xd9, 0xbd, 
 0xfa, 0x0b, 0x26, 0xbd, 0xf1, 0xef, 0x30, 0x3e, 0x15, 0xa4, 0xee, 0x3d, 
 0x2c, 0x0b, 0x37, 0x3d, 0xa1, 0x06, 0xe8, 0xbd, 0xc1, 0x5d, 0x98, 0x3d, 
 0x15, 0x98, 0xc6, 0xbc, 0xfc, 0x8a, 0xc0, 0x3d, 0xaf, 0x7a, 0xf0, 0x3d, 
 0x3b, 0x04, 0x66, 0xbc, 0x81, 0x88, 0x70, 0x3d, 0x42, 0xbf, 0x07, 0x3e, 
 0x70, 0x28, 0xfd, 0x3b, 0x88, 0x7b, 0x1d, 0x3e, 0xfe, 0x21, 0x72, 0xbd, 
 0x89, 0x32, 0x22, 0xbe, 0x4d, 0x44, 0x6b, 0x3d, 0x76, 0xb1, 0xfc, 0x3d, 
 0xab, 0x63, 0x62, 0x3b, 0x17, 0x63, 0x28, 0x3d, 0xf1, 0x16, 0xae, 0x3d, 
 0x5d, 0x59, 0x3e, 0x3d, 0xd4, 0xa4, 0x9e, 0xbc, 0x7c, 0x51, 0x32, 0x3e, 
 0xf9, 0x83, 0x53, 0xbb, 0x80, 0xcb, 0xe2, 0xbd, 0xd4, 0xbb, 0x15, 0xbe, 
 0xd1, 0xd1, 0x1a, 0x3e, 0x8e, 0x89, 0xf6, 0x3d, 0xa2, 0x6c, 0x92, 0x3d, 
 0x6e, 0x4d, 0x0b, 0xbe, 0x5f, 0xfa, 0x35, 0x3e, 0xca, 0x4f, 0x37, 0xbe, 
 0x7e, 0x6d, 0x25, 0xbe, 0x9d, 0xd3, 0xe5, 0xbc, 0xfd, 0xf1, 0x02, 0x3e, 
 0x44, 0x79, 0x18, 0x3e, 0x61, 0x1b, 0xcf, 0xbc, 0xe4, 0x6b, 0x1e, 0x3d, 
 0x49, 0x43, 0x17, 0xbd, 0x01, 0x43, 0x39, 0x3e, 0x94, 0x14, 0x69, 0xbd, 
 0x04, 0x81, 0xdf, 0x3d, 0xc4, 0x0d, 0x80, 0xbd, 0x76, 0x1f, 0x93, 0xbd, 
 0xa5, 0x72, 0x11, 0xbe, 0x46, 0x15, 0x8a, 0x3d, 0xf9, 0x5e, 0x15, 0xbd, 
 0x45, 0x37, 0xc1, 0xbc, 0x08, 0x35, 0xc1, 0x3d, 0x17, 0x5d, 0xe6, 0xbc, 
 0x0a, 0xaa, 0xdc, 0x3d, 0x18, 0x74, 0x92, 0xbd, 0xd3, 0xaf, 0x4a, 0xbe, 
 0xde, 0x74, 0x00, 0x3d, 0x3e, 0xc3, 0x29, 0x3d, 0x8c, 0x4d, 0xc7, 0xbd, 
 0x5c, 0x49, 0xf5, 0x3d, 0x30, 0xbf, 0xc1, 0x3c, 0x53, 0x5e, 0xb0, 0x3d, 
 0xee, 0x12, 0x32, 0xbe, 0xe2, 0xa4, 0x03, 0xbe, 0x07, 0xc3, 0x5e, 0xbc, 
 0xde, 0x0b, 0x1c, 0x3e, 0xa5, 0x82, 0x26, 0xbe, 0xda, 0x2c, 0x0d, 0xbd, 
 0xb8, 0x9c, 0x00, 0x3c, 0x6a, 0x67, 0x88, 0x3d, 0x23, 0x19, 0x89, 0xbd, 
 0x7e, 0x72, 0x66, 0x3e, 0x78, 0xfe, 0xb5, 0xbd, 0x7b, 0x3c, 0x48, 0xbd, 
 0x76, 0xe8, 0xf5, 0x3d, 0x48, 0x10, 0x05, 0x3e, 0xff, 0xfb, 0xca, 0xbd, 
 0x7c, 0x81, 0x00, 0xbe, 0xcc, 0x86, 0x37, 0x3e, 0xbc, 0x6e, 0x30, 0xbe, 
 0xb0, 0x04, 0x74, 0xbd, 0xec, 0x55, 0x0d, 0xbd, 0x14, 0xf6, 0xeb, 0xbd, 
 0xc7, 0x50, 0x9c, 0x3c, 0xe5, 0xc7, 0xfd, 0x3d, 0xea, 0xae, 0x2a, 0x3e, 
 0xf0, 0x9e, 0x34, 0x3e, 0x07, 0x68, 0x32, 0xbe, 0x27, 0x30, 0xa2, 0x3c, 
 0x0e, 0xda, 0x44, 0x3d, 0x34, 0x5a, 0x87, 0xbd, 0x78, 0xff, 0x5d, 0x3d, 
 0x13, 0x3f, 0x81, 0x3c, 0x05, 0x7e, 0x40, 0xbd, 0x88, 0x34, 0x92, 0x3d, 
 0x88, 0xd7, 0x0a, 0xbd, 0x35, 0xbc, 0x1d, 0x3e, 0x38, 0x9c, 0x84, 0xbd, 
 0xb0, 0x18, 0xf0, 0xbd, 0x74, 0x8e, 0xa4, 0x3b, 0x60, 0x6a, 0x25, 0xbd, 
 0x8b, 0x00, 0x55, 0xbd, 0xc5, 0x70, 0x1e, 0x3e, 0x29, 0x50, 0x52, 0x3d, 
 0x75, 0x79, 0xb3, 0x3d, 0xb4, 0x4b, 0x41, 0x3d, 0x19, 0x7d, 0x41, 0xbd, 
 0x8e, 0x59, 0x2f, 0x3d, 0x5e, 0xa3, 0x11, 0x3c, 0x42, 0x3a, 0xb9, 0xbd, 
 0x5f, 0xb3, 0xb7, 0x3d, 0x8e, 0xa7, 0xc6, 0xbb, 0x21, 0xee, 0x98, 0xbd, 
 0xf4, 0x08, 0x98, 0xba, 0xb9, 0xc1, 0x05, 0x3d, 0x94, 0x99, 0xe7, 0xbd, 
 0xf3, 0xe4, 0xf2, 0x3b, 0x90, 0x7f, 0xca, 0xbd, 0x96, 0x7f, 0xd1, 0x3d, 
 0x13, 0xb2, 0xea, 0xbc, 0x95, 0x1a, 0x34, 0xbd, 0x60, 0x59, 0x3f, 0xbe, 
 0x25, 0xa7, 0x0a, 0x3d, 0x4e, 0x0a, 0xff, 0xbc, 0x00, 0xec, 0xae, 0xbd, 
 0x42, 0xdb, 0x95, 0x3d, 0xea, 0x99, 0xdb, 0x3c, 0x3c, 0x54, 0x48, 0xbd, 
 0x63, 0xc9, 0xef, 0x3d, 0x0d, 0xef, 0x08, 0xbe, 0x53, 0x3e, 0x49, 0x3d, 
 0xbe, 0x16, 0x7d, 0xbd, 0xd1, 0x8c, 0x58, 0x3d, 0x84, 0x50, 0x88, 0xbd, 
 0xc5, 0x7c, 0x91, 0xbb, 0x87, 0xde, 0x23, 0x3e, 0x74, 0xb7, 0x26, 0x3d, 
 0x02, 0x4f, 0xb9, 0xbb, 0xc7, 0xdb, 0x46, 0xbe, 0xd2, 0x05, 0x06, 0xba, 
 0xd3, 0xf6, 0xee, 0x3c, 0xe6, 0xc0, 0x8c, 0xbc, 0x5b, 0xfa, 0x00, 0xbe, 
 0x98, 0x75, 0x13, 0x3e, 0xae, 0x74, 0xd3, 0x3c, 0xf5, 0x16, 0xa1, 0xbc, 
 0xb6, 0x4b, 0xb4, 0x3d, 0x9e, 0x97, 0xc2, 0x3d, 0x8b, 0xc7, 0x88, 0x3d, 
 0x14, 0x7a, 0xec, 0xbc, 0x1c, 0x5d, 0x2b, 0x3d, 0x1f, 0x84, 0x0c, 0x3e, 
 0x17, 0x0d, 0x36, 0xbe, 0x59, 0x70, 0x07, 0xbd, 0x30, 0x37, 0x2a, 0xbe, 
 0x37, 0xff, 0x2a, 0xbe, 0x17, 0xb3, 0x01, 0xbe, 0x6c, 0x65, 0x07, 0x3e, 
 0xb0, 0x2e, 0xe0, 0xbd, 0x7d, 0xfd, 0x3f, 0xbc, 0x75, 0xfa, 0xa2, 0x3d, 
 0xac, 0xe2, 0x8b, 0x3d, 0x18, 0xec, 0x7b, 0xbd, 0xf5, 0xb6, 0xcc, 0xbd, 
 0x3d, 0xe7, 0x04, 0xbe, 0xb8, 0x06, 0xcd, 0xbd, 0x58, 0xde, 0x6f, 0x3e, 
 0xd7, 0xfb, 0x82, 0x3c, 0x15, 0x02, 0x7c, 0xbc, 0x50, 0x54, 0x3b, 0xbd, 
 0x27, 0x6d, 0x93, 0x3b, 0x4a, 0xc5, 0xed, 0xbd, 0x4f, 0xc6, 0xa3, 0xba, 
 0xf1, 0x17, 0x5b, 0xbd, 0xe1, 0xa5, 0x89, 0x3d, 0xc1, 0x1b, 0xa4, 0xbd, 
 0xdb, 0x41, 0x67, 0xbd, 0x69, 0x72, 0x52, 0xbc, 0x97, 0x9a, 0x28, 0x3e, 
 0x7f, 0x59, 0xc6, 0xbd, 0x59, 0xdc, 0xc7, 0xbd, 0x13, 0x2e, 0x04, 0xbe, 
 0x0c, 0x1c, 0xcd, 0x3b, 0xaf, 0xe0, 0xa9, 0x3d, 0x44, 0xac, 0xf4, 0x3d, 
 0xb5, 0x42, 0xc1, 0xbd, 0x92, 0xae, 0xe1, 0x3c, 0x9f, 0x88, 0x87, 0xbd, 
 0xda, 0x8e, 0x01, 0x3b, 0xba, 0xe6, 0x18, 0xbe, 0xcf, 0xbc, 0xd1, 0x3c, 
 0x92, 0x28, 0x92, 0x3d, 0xf5, 0x64, 0x56, 0xbe, 0xbf, 0xb9, 0x1a, 0xbe, 
 0x74, 0xa9, 0x18, 0x3e, 0x20, 0x9b, 0x3b, 0x3e, 0x69, 0x66, 0x8c, 0x39, 
 0x8f, 0xe5, 0x8f, 0x3d, 0x15, 0x98, 0xae, 0xbb, 0x88, 0x31, 0x7b, 0x3e, 
 0xbb, 0x2a, 0x95, 0xbb, 0x3c, 0xbe, 0x5a, 0xbb, 0x11, 0x0d, 0xf3, 0xbd, 
 0x50, 0x82, 0x86, 0xb8, 0x29, 0x9f, 0xe5, 0xbd, 0x42, 0xa5, 0xbc, 0xbd, 
 0x47, 0xca, 0x35, 0x3e, 0x82, 0xfc, 0x69, 0x3d, 0xed, 0xbd, 0xab, 0xbc, 
 0x1f, 0xc7, 0xb8, 0xbd, 0x0d, 0x50, 0x00, 0x3d, 0xf7, 0xda, 0xf2, 0x3c, 
 0x1a, 0xf4, 0x16, 0x3c, 0xaf, 0x27, 0x62, 0x3c, 0x2e, 0xdd, 0x9a, 0xbd, 
 0x48, 0x48, 0x12, 0xbe, 0x3d, 0x24, 0xfc, 0xbd, 0xca, 0xf6, 0x64, 0xbc, 
 0x9c, 0x41, 0x29, 0xbe, 0x27, 0xea, 0x01, 0xbe, 0x9c, 0xf8, 0x08, 0xbe, 
 0x1c, 0xb5, 0xc0, 0xbd, 0xe1, 0xb4, 0x26, 0xbe, 0x5c, 0x85, 0x79, 0xbd, 
 0xd3, 0xfa, 0xad, 0x3d, 0xd0, 0x03, 0x04, 0x3e, 0x54, 0x5e, 0x00, 0xbe, 
 0x1b, 0xfd, 0xbe, 0xbd, 0x46, 0x7a, 0x85, 0xbd, 0x9a, 0x4a, 0xc2, 0xbd, 
 0x0c, 0x0e, 0xef, 0x3d, 0x72, 0x90, 0x40, 0x3e, 0x5a, 0x08, 0x2c, 0x3e, 
 0xae, 0x89, 0x9c, 0xbd, 0x4b, 0x58, 0xd4, 0xbd, 0x31, 0x44, 0x07, 0xbe, 
 0xc7, 0xa5, 0x25, 0x3d, 0x29, 0xac, 0xc1, 0x3d, 0xf5, 0x64, 0x50, 0x3e, 
 0x69, 0x9a, 0x0e, 0x3c, 0x64, 0xe2, 0xd5, 0x3c, 0x09, 0x24, 0xe8, 0x3d, 
 0xb2, 0x53, 0x0f, 0x3e, 0x79, 0x66, 0x1c, 0xbe, 0x6e, 0xfd, 0x62, 0x3d, 
 0x59, 0xee, 0x4b, 0x3d, 0xd6, 0x86, 0xb2, 0xbc, 0x49, 0x12, 0xfb, 0x3d, 
 0x43, 0xdb, 0x0d, 0x3e, 0x39, 0x18, 0x0d, 0xbd, 0x14, 0x5f, 0x89, 0xbd, 
 0xf8, 0x29, 0x43, 0x3c, 0x08, 0x57, 0x9f, 0x3d, 0x9b, 0x07, 0x23, 0x3e, 
 0x89, 0x82, 0x04, 0x3e, 0x2b, 0xa2, 0xcf, 0x3b, 0xa1, 0x46, 0x65, 0x3d, 
 0xe3, 0x11, 0x8e, 0xbd, 0x43, 0x39, 0xe9, 0x3d, 0x84, 0xf3, 0xd6, 0xbc, 
 0x89, 0x80, 0x3d, 0x3a, 0x32, 0xfe, 0x18, 0x3d, 0x39, 0xa5, 0xcf, 0x3c, 
 0xd6, 0x42, 0xe4, 0x3d, 0x30, 0xa9, 0x00, 0xbc, 0xdd, 0x83, 0x1f, 0x3b, 
 0x14, 0x8c, 0x15, 0xbe, 0xce, 0xf0, 0xee, 0xbc, 0x17, 0xe5, 0xbb, 0x3b, 
 0x70, 0x2f, 0x97, 0x3d, 0x2b, 0xda, 0x3e, 0x3d, 0x61, 0x77, 0x60, 0x3e, 
 0x75, 0x09, 0xcf, 0x3a, 0x48, 0x52, 0xcb, 0x3d, 0xa5, 0xc1, 0x07, 0xbe, 
 0x90, 0x2e, 0x68, 0x3d, 0xc8, 0xf8, 0x9e, 0xbd, 0x41, 0x87, 0x8e, 0xbc, 
 0x68, 0xcf, 0xd4, 0x3d, 0x4c, 0x28, 0x30, 0xbe, 0xe3, 0x6f, 0x06, 0xbd, 
 0x7a, 0xf6, 0xd8, 0xbd, 0xe8, 0x41, 0x96, 0x3d, 0x0d, 0x34, 0x27, 0xbd, 
 0x79, 0x8b, 0x89, 0xbd, 0x5c, 0x34, 0x8f, 0x3d, 0xbe, 0x20, 0x25, 0xbe, 
 0xbe, 0xb6, 0x2e, 0xbe, 0x76, 0xbe, 0x43, 0xbe, 0x07, 0x0a, 0x57, 0xbe, 
 0xdb, 0x30, 0xb6, 0xbd, 0xad, 0xa0, 0xdc, 0x3d, 0xae, 0xb3, 0x80, 0x3c, 
 0xde, 0x16, 0x7d, 0x3d, 0x86, 0x16, 0x4d, 0x3e, 0xb7, 0x8c, 0x66, 0xbe, 
 0xe2, 0x85, 0x3d, 0x3e, 0xe2, 0x47, 0x0f, 0xbd, 0x50, 0xb3, 0x88, 0x3a, 
 0x9e, 0x54, 0x21, 0xbb, 0xd3, 0x19, 0x27, 0xbe, 0x8f, 0x3b, 0x0d, 0x3e, 
 0xf4, 0x37, 0x0e, 0x3c, 0xf2, 0xa0, 0xa8, 0xbb, 0x2e, 0x90, 0x08, 0x3d, 
 0xf8, 0x1d, 0xc9, 0x3d, 0x78, 0xe1, 0x0c, 0xbe, 0xa7, 0xd3, 0xf1, 0x3c, 
 0xbc, 0x49, 0x01, 0x3e, 0xe0, 0x7c, 0x38, 0xbd, 0x5c, 0x71, 0xa6, 0x3c, 
 0x44, 0x0e, 0x79, 0xbd, 0xb9, 0x9f, 0x94, 0x3d, 0x19, 0xf1, 0x10, 0x3e, 
 0x65, 0x17, 0xfc, 0xbd, 0xb0, 0x96, 0xf9, 0xbd, 0x5f, 0x42, 0x0d, 0xbe, 
 0x91, 0x05, 0xa9, 0x3b, 0x94, 0x5a, 0xe0, 0xbc, 0x52, 0x22, 0x1c, 0x3c, 
 0xe7, 0xa3, 0x60, 0x3e, 0xe1, 0x1c, 0xed, 0xbd, 0x9a, 0xbf, 0xf2, 0xbd, 
 0xea, 0x69, 0x02, 0x3e, 0x66, 0x44, 0xc9, 0x3d, 0x8b, 0x66, 0xda, 0x3b, 
 0xf5, 0xc9, 0x9c, 0xbd, 0xcf, 0xe2, 0xe5, 0x3b, 0xb5, 0xd1, 0x26, 0x3e, 
 0xb5, 0xc2, 0xdd, 0x3d, 0x1d, 0x51, 0x56, 0xbe, 0xb5, 0xe7, 0x36, 0xbe, 
 0xda, 0x50, 0xab, 0xbd, 0x9b, 0x40, 0x40, 0x3d, 0xda, 0x89, 0x9e, 0x3d, 
 0xa7, 0x28, 0x1a, 0x3e, 0xb7, 0xd0, 0xb2, 0x3d, 0x64, 0x6c, 0xa2, 0xbc, 
 0x5a, 0x3b, 0xa6, 0xbd, 0x27, 0x30, 0xb0, 0xbd, 0xe5, 0x23, 0x67, 0x3b, 
 0xd8, 0xfa, 0x32, 0x3e, 0x99, 0x80, 0xc7, 0x3d, 0x3c, 0x8d, 0x16, 0x3b, 
 0x66, 0xec, 0x0b, 0xbe, 0xb9, 0xc7, 0x21, 0xbe, 0xf3, 0x98, 0xf7, 0xbd, 
 0x0a, 0xd0, 0x2a, 0x3c, 0xe5, 0x00, 0x17, 0x3d, 0x3e, 0xd1, 0x0c, 0x3e, 
 0x77, 0x12, 0x67, 0xbc, 0x80, 0xd0, 0x2a, 0xbc, 0xd5, 0x6d, 0x76, 0xbc, 
 0x80, 0x42, 0xb7, 0xbc, 0xa8, 0x57, 0xa6, 0x3d, 0x0b, 0xd2, 0x02, 0xbe, 
 0x4e, 0xc8, 0x66, 0x3d, 0x63, 0x54, 0x02, 0x3e, 0x11, 0x13, 0x40, 0xbd, 
 0xda, 0xae, 0x75, 0xbd, 0x9e, 0x5a, 0xdb, 0xbd, 0x36, 0xee, 0xba, 0xbd, 
 0x39, 0xd6, 0x65, 0x3c, 0x28, 0x9c, 0xc2, 0x3d, 0x6f, 0xb8, 0x10, 0x3e, 
 0x82, 0x3e, 0x9d, 0xbb, 0xcc, 0x49, 0x4e, 0x3d, 0x8f, 0xe1, 0xc7, 0xbd, 
 0x0d, 0x61, 0xad, 0x39, 0x78, 0xed, 0x25, 0x3b, 0xda, 0xe4, 0x30, 0xbe, 
 0x52, 0xe4, 0x1b, 0x3b, 0xf5, 0x25, 0xaa, 0xbd, 0xa5, 0x82, 0x48, 0x3c, 
 0xe4, 0x4f, 0x5c, 0xbd, 0x12, 0x84, 0x7f, 0xbd, 0x07, 0xcd, 0x15, 0x3e, 
 0x95, 0x72, 0x20, 0x3e, 0x30, 0x1f, 0xdb, 0xbd, 0x4f, 0x6b, 0x48, 0x3e, 
 0x25, 0x30, 0x97, 0xbd, 0x41, 0xdb, 0x16, 0x3d, 0x30, 0x94, 0xb8, 0xbd, 
 0x11, 0xe3, 0xc2, 0xb8, 0x2c, 0x8b, 0xd9, 0xbd, 0xcb, 0x3a, 0x2f, 0xbd, 
 0x38, 0xc0, 0xde, 0xbb, 0x04, 0x26, 0xd7, 0xbd, 0x9b, 0xa8, 0x85, 0x3d, 
 0x3d, 0xd8, 0x0d, 0x3c, 0x1d, 0xa0, 0x68, 0xbd, 0x0b, 0x8c, 0xde, 0x3d, 
 0x57, 0xc3, 0xe6, 0xbd, 0xd8, 0xb9, 0x0e, 0xbe, 0x45, 0xea, 0x9f, 0xbd, 
 0xf3, 0xea, 0x1c, 0x3e, 0x1b, 0x52, 0x0d, 0xbc, 0xd9, 0x58, 0x22, 0xbe, 
 0x53, 0x0b, 0x4c, 0x3c, 0x64, 0x3e, 0xfb, 0xbd, 0x13, 0x04, 0x31, 0xbc, 
 0x24, 0x2d, 0x18, 0x3e, 0x1b, 0xf6, 0x9f, 0x3d, 0x9b, 0x85, 0x26, 0xbd, 
 0x8f, 0xb1, 0xdd, 0x3d, 0xca, 0x33, 0x87, 0xbc, 0xd9, 0x8a, 0xcb, 0x3d, 
 0x44, 0x4f, 0xdd, 0xbd, 0x8e, 0x9c, 0xdd, 0x3d, 0x2c, 0x8b, 0x15, 0x3e, 
 0x76, 0xd7, 0x05, 0xbe, 0xc6, 0xc2, 0xba, 0x3d, 0x17, 0xf2, 0x2c, 0xbe, 
 0x0f, 0x16, 0x00, 0xbe, 0x01, 0x38, 0x3c, 0x3d, 0x10, 0xa8, 0x42, 0xbd, 
 0xfb, 0x91, 0x22, 0x3e, 0x78, 0x5a, 0x14, 0x3e, 0x90, 0xb1, 0x6f, 0xbd, 
 0xe1, 0xbc, 0x5a, 0xbe, 0xff, 0x80, 0x8a, 0xbd, 0x06, 0x39, 0xbd, 0x3d, 
 0x04, 0xf2, 0xc4, 0x3d, 0x35, 0xd1, 0x3a, 0x3e, 0xe1, 0xeb, 0x38, 0x3e, 
 0xfa, 0x97, 0x98, 0x3d, 0x98, 0xd6, 0x18, 0x3c, 0xde, 0x77, 0xf4, 0xbd, 
 0x9d, 0x2e, 0xbf, 0xbd, 0xda, 0x78, 0xb7, 0xbd, 0x1c, 0x16, 0xfa, 0x3d, 
 0x6f, 0xa5, 0xbd, 0x3d, 0xd9, 0xf1, 0x85, 0x3c, 0x4c, 0xe0, 0x4c, 0xbd, 
 0xd1, 0x04, 0xfe, 0x3d, 0x32, 0x84, 0x0b, 0x3e, 0x98, 0x7f, 0x09, 0x3e, 
 0xa8, 0x6b, 0x1a, 0x3d, 0x73, 0xb0, 0x53, 0xbd, 0x00, 0xc5, 0x22, 0xbe, 
 0x76, 0xf0, 0x2f, 0xbd, 0x53, 0x28, 0x9f, 0x3d, 0x8d, 0xdb, 0x92, 0x3d, 
 0x42, 0xb1, 0x85, 0x3d, 0x10, 0xfa, 0x22, 0x3d, 0x15, 0x5c, 0x03, 0x3c, 
 0x21, 0x17, 0x02, 0xbc, 0x78, 0xf2, 0xa3, 0xbd, 0x61, 0xe1, 0xc9, 0xbd, 
 0x69, 0x00, 0x24, 0x3d, 0x2b, 0x90, 0x79, 0x3d, 0xf0, 0x56, 0x08, 0xbe, 
 0x1e, 0x6f, 0x3f, 0x3e, 0xd1, 0x00, 0xdd, 0x3d, 0xd8, 0xc1, 0x32, 0x3e, 
 0x89, 0x15, 0x5b, 0xbe, 0x03, 0x36, 0x44, 0x3e, 0x34, 0xa2, 0x5e, 0xbd, 
 0x51, 0x02, 0x5a, 0xbe, 0x50, 0xe2, 0xa1, 0x3d, 0xf0, 0x44, 0xd4, 0x3d, 
 0x17, 0x36, 0x88, 0x3b, 0xbc, 0x5f, 0x31, 0xbe, 0x54, 0x58, 0x20, 0x3e, 
 0x3a, 0x92, 0x97, 0x3c, 0xa7, 0x49, 0xb4, 0xbb, 0x5a, 0x7a, 0x94, 0x3d, 
 0x0f, 0x16, 0x61, 0xbc, 0x5a, 0x4b, 0xa1, 0xbd, 0x71, 0xe7, 0xaa, 0xbc, 
 0xcb, 0x4a, 0x1e, 0x3d, 0xf1, 0xb8, 0xc7, 0xbd, 0x38, 0xe4, 0x03, 0x3e, 
 0x5b, 0xbc, 0x78, 0xbd, 0x26, 0xac, 0x22, 0xbd, 0x27, 0xf1, 0x0e, 0xbe, 
 0x9a, 0x7c, 0xd8, 0x39, 0x8f, 0x3b, 0x7e, 0xbd, 0x76, 0xd8, 0xfc, 0x3d, 
 0xb1, 0x97, 0x97, 0xbd, 0x96, 0x5e, 0xda, 0xbd, 0x42, 0xc8, 0xc7, 0xbd, 
 0x58, 0xe7, 0xba, 0xbc, 0x94, 0x0f, 0xf5, 0xbd, 0x08, 0x92, 0x13, 0x3d, 
 0xd2, 0xb5, 0x35, 0x3d, 0x12, 0xe1, 0x33, 0x3e, 0x23, 0x24, 0x51, 0x3c, 
 0xbb, 0x47, 0x3d, 0x3e, 0xa5, 0x0c, 0xa5, 0xbd, 0xa7, 0x90, 0x3b, 0x3d, 
 0x11, 0x8d, 0x13, 0x3e, 0xbd, 0xc2, 0x8f, 0x3b, 0x8f, 0x5f, 0xdb, 0x3b, 
 0x7b, 0x01, 0x47, 0x3d, 0x34, 0x6b, 0xb7, 0x3d, 0x6c, 0x71, 0x18, 0xba, 
 0x16, 0xb8, 0x7c, 0xbb, 0xd0, 0x7d, 0xb9, 0xbd, 0xc6, 0x1d, 0xa2, 0x3c, 
 0x74, 0x0c, 0x2f, 0xbd, 0x0e, 0xf3, 0x20, 0x3e, 0xb4, 0xf7, 0x39, 0xbd, 
 0xd4, 0x3a, 0xba, 0x3d, 0x47, 0x47, 0xe5, 0xba, 0xc9, 0x8a, 0x26, 0xbd, 
 0x24, 0x9f, 0x3a, 0xbd, 0x26, 0xde, 0x81, 0x3c, 0x59, 0xc6, 0xb2, 0xbd, 
 0x20, 0x21, 0xa5, 0xbd, 0x41, 0x4f, 0x55, 0xbb, 0x0a, 0x0c, 0xcf, 0xbd, 
 0xc2, 0x5b, 0x5e, 0xbc, 0x2a, 0xd9, 0x02, 0x3e, 0xdf, 0xb8, 0x0b, 0xbe, 
 0x42, 0xc6, 0x07, 0xbc, 0xe8, 0x4d, 0xbb, 0xba, 0xa1, 0x47, 0x24, 0xbc, 
 0xa5, 0xa0, 0x46, 0xbb, 0x49, 0x1d, 0xab, 0xbd, 0x75, 0x7b, 0x6c, 0xbc, 
 0xac, 0x85, 0xe4, 0x3b, 0xbb, 0xd3, 0x47, 0xbd, 0x91, 0xce, 0x8d, 0xba, 
 0x7d, 0x51, 0x90, 0x3d, 0xd7, 0xc0, 0x00, 0xbc, 0xcc, 0x3c, 0xfb, 0x3c, 
 0xfe, 0x0e, 0x0d, 0xb9, 0xf6, 0x97, 0x51, 0xbc, 0xe7, 0x89, 0xab, 0x3c, 
 0xc1, 0xe4, 0xb7, 0xbb, 0xdf, 0xb5, 0x8a, 0xbd, 0xfd, 0x97, 0xc5, 0xbd, 
 0x69, 0x4c, 0xc2, 0xbc, 0x04, 0x82, 0x18, 0xbd, 0xb4, 0x99, 0x8e, 0x38, 
 0x1d, 0x64, 0xb6, 0xb8, 0x75, 0x10, 0xd3, 0xbd, 0x44, 0x86, 0x07, 0xbc, 
 0x0a, 0xc4, 0xdf, 0x3d, 0xb5, 0xf6, 0xbf, 0xbb, 0xf8, 0xa3, 0x3b, 0x3e, 
 0x63, 0xdb, 0x63, 0xbd, 0x15, 0x54, 0x3e, 0xbd, 0x7f, 0xb6, 0x1a, 0x3d, 
 0x41, 0x5d, 0x86, 0xbd, 0xab, 0x70, 0xa1, 0xbd, 0x13, 0x7f, 0x20, 0x3d, 
 0x63, 0x3c, 0x2b, 0xbd, 0xdb, 0xc9, 0x14, 0x3e, 0xd5, 0x26, 0x56, 0xbe, 
 0x2f, 0x93, 0xa3, 0xbd, 0x56, 0x07, 0x81, 0xbc, 0x6e, 0x8d, 0xd2, 0x3d, 
 0xf2, 0x10, 0x14, 0xbe, 0xd2, 0xfd, 0xfe, 0xbd, 0xc1, 0x53, 0xc6, 0xbb, 
 0x6d, 0x24, 0x81, 0x3b, 0xe7, 0xca, 0x08, 0x3e, 0x29, 0x2c, 0xc3, 0xbc, 
 0xbb, 0xc5, 0xad, 0x3d, 0xa4, 0xd9, 0xb7, 0xba, 0x94, 0xd6, 0x2a, 0x3e, 
 0x39, 0xb3, 0xe3, 0xbc, 0x09, 0xd1, 0x8b, 0x3d, 0x1d, 0xd6, 0x89, 0xbd, 
 0x46, 0xca, 0x4c, 0x3b, 0xae, 0xe4, 0x0f, 0x3e, 0x5a, 0x52, 0x0c, 0xbd, 
 0xe3, 0x90, 0x8a, 0xbd, 0x20, 0x8d, 0xa1, 0x3d, 0x74, 0xfc, 0xc1, 0x3c, 
 0xf6, 0x7b, 0x77, 0x3d, 0x2d, 0x22, 0x89, 0x3d, 0xcd, 0xad, 0xdc, 0xbc, 
 0xf3, 0x05, 0xd2, 0xbd, 0xcd, 0xee, 0x89, 0xbd, 0x2e, 0xad, 0xf2, 0xbd, 
 0x0d, 0xfa, 0xac, 0xbd, 0x44, 0x50, 0xb6, 0x3c, 0x8c, 0xa6, 0x32, 0xbd, 
 0x06, 0xbd, 0xef, 0x3b, 0xf9, 0xb9, 0x84, 0x3c, 0x99, 0xeb, 0x3a, 0x3e, 
 0x68, 0xde, 0xc5, 0xbc, 0x4a, 0x79, 0x93, 0xbc, 0x60, 0xbe, 0x33, 0x3e, 
 0xac, 0xc5, 0xc3, 0xbc, 0x32, 0x8d, 0x86, 0x3c, 0xcd, 0x4b, 0xb7, 0x3d, 
 0x47, 0xe3, 0x5d, 0x3d, 0xa1, 0x8b, 0xc4, 0x3b, 0x09, 0x68, 0x81, 0xbc, 
 0x81, 0xe5, 0xa7, 0xbc, 0x01, 0xe7, 0xb4, 0x3b, 0x1b, 0x5c, 0x38, 0x3d, 
 0xac, 0x94, 0xf2, 0xbd, 0xd7, 0x12, 0xba, 0xbd, 0xc6, 0xea, 0xd6, 0x3d, 
 0x37, 0xf0, 0xa7, 0xbb, 0xa5, 0x41, 0x21, 0xbe, 0xf5, 0x9b, 0xdf, 0x3d, 
 0x4c, 0xd4, 0x28, 0xbd, 0xd8, 0xcd, 0x0f, 0xbd, 0x6f, 0xe8, 0xc7, 0x3d, 
 0xa5, 0xe3, 0xff, 0x3d, 0xef, 0xcf, 0xeb, 0xbd, 0x2e, 0xd3, 0x8b, 0x3d, 
 0x1b, 0x90, 0x42, 0x3e, 0x0e, 0x0c, 0xc3, 0xbd, 0xbf, 0x1e, 0xd1, 0x3d, 
 0xb9, 0x07, 0x08, 0x3e, 0xf6, 0x21, 0x26, 0x3d, 0x30, 0x95, 0x25, 0x3e, 
 0x21, 0xbb, 0x80, 0x3d, 0x01, 0xe4, 0x09, 0x3e, 0x61, 0xa3, 0x12, 0xbe, 
 0x96, 0x26, 0xdf, 0x3d, 0xfa, 0x4b, 0x4d, 0x3d, 0x9a, 0xfe, 0x91, 0x3c, 
 0x6c, 0xd6, 0xac, 0xbc, 0x7d, 0xc7, 0x13, 0xbd, 0xf2, 0xa0, 0x0e, 0xbe, 
 0xbe, 0xe3, 0x77, 0xbc, 0xa4, 0xe5, 0xc1, 0xbd, 0x97, 0x4f, 0xc0, 0xbc, 
 0x28, 0x50, 0x88, 0x3c, 0x23, 0xd6, 0xc2, 0xbc, 0xf1, 0xc7, 0xc8, 0xbd, 
 0x52, 0xb9, 0x1c, 0xbe, 0x88, 0x0a, 0xc8, 0x3d, 0xc3, 0x32, 0x12, 0x3e, 
 0xd7, 0x6c, 0x3a, 0x3d, 0x33, 0x32, 0x14, 0xbe, 0x74, 0x15, 0x96, 0xbc, 
 0x53, 0x10, 0xbe, 0xbd, 0xb9, 0x1a, 0xb3, 0x3d, 0x0a, 0x9c, 0x9a, 0x3c, 
 0x42, 0xa7, 0xbf, 0xbd, 0x18, 0xf5, 0xf0, 0xbd, 0xc6, 0xaf, 0x25, 0x3e, 
 0xaa, 0x93, 0x04, 0x3d, 0xbd, 0x0d, 0xc7, 0xbd, 0xd4, 0x16, 0x18, 0x3e, 
 0xef, 0x13, 0xcf, 0xba, 0x2c, 0xce, 0x5a, 0xbd, 0xd9, 0x44, 0x18, 0xbe, 
 0xfc, 0xf4, 0x6c, 0x3d, 0x0a, 0x27, 0xf6, 0x3d, 0xd1, 0x53, 0xc3, 0xbd, 
 0xed, 0xa2, 0x91, 0x3d, 0xf6, 0xae, 0xea, 0x3d, 0x1f, 0xf0, 0x08, 0xbd, 
 0xdc, 0xc5, 0x15, 0xbe, 0x2e, 0x43, 0xf8, 0x3d, 0xd9, 0x7b, 0x19, 0xbd, 
 0x58, 0xd1, 0xdb, 0xbb, 0x31, 0xe0, 0x03, 0x3e, 0x2e, 0x48, 0x73, 0x3c, 
 0x9c, 0x99, 0xb0, 0xbd, 0xc3, 0x02, 0x0e, 0xbc, 0x35, 0x39, 0x1f, 0x3d, 
 0x70, 0x54, 0x38, 0x3d, 0x10, 0x06, 0x24, 0x3e, 0x81, 0x8d, 0xe3, 0xbd, 
 0xc5, 0x03, 0x4e, 0x3e, 0x59, 0x56, 0x29, 0xbd, 0x01, 0x57, 0x21, 0xbe, 
 0x99, 0x97, 0x00, 0xbe, 0xc6, 0xa7, 0x56, 0xbe, 0x2d, 0xcb, 0xca, 0xbd, 
 0xcb, 0xb3, 0xef, 0x3d, 0xf9, 0xf7, 0xb9, 0xba, 0xfc, 0xbd, 0x8f, 0x3d, 
 0x09, 0x57, 0x15, 0xbe, 0xaa, 0x5a, 0x62, 0x3d, 0x59, 0x72, 0xf9, 0x3d, 
 0x64, 0xa9, 0x02, 0x3e, 0x70, 0xd4, 0x3f, 0xbe, 0xa3, 0x3b, 0xe9, 0xbd, 
 0x66, 0xea, 0x98, 0x3d, 0xf4, 0x48, 0x70, 0xbe, 0xe9, 0xa2, 0x47, 0x3e, 
 0xb9, 0xc2, 0x34, 0xbe, 0x3c, 0x81, 0xc9, 0xbd, 0xee, 0xe9, 0x09, 0x3e, 
 0x7a, 0x38, 0x28, 0xbd, 0x2e, 0xab, 0x1f, 0x3e, 0x19, 0xc2, 0x00, 0x3e, 
 0xc6, 0x3a, 0x0d, 0xbd, 0xea, 0x06, 0x17, 0xbe, 0x83, 0xec, 0xac, 0x3d, 
 0x4f, 0xc4, 0x92, 0x3d, 0x64, 0x37, 0x04, 0xbe, 0xfb, 0xd7, 0xcf, 0xbd, 
 0xf8, 0xba, 0xb6, 0x3d, 0x22, 0xe7, 0xeb, 0x3d, 0x81, 0x66, 0xd9, 0xbc, 
 0x6f, 0xb0, 0xd1, 0xbc, 0xbc, 0x41, 0xe1, 0xbd, 0x2f, 0xb6, 0x2b, 0x3e, 
 0x9e, 0x90, 0x1d, 0xbe, 0x77, 0xbf, 0x8e, 0xbd, 0x71, 0x6d, 0x8f, 0x3d, 
 0xeb, 0xd2, 0x66, 0xbd, 0x53, 0x31, 0xd5, 0xbd, 0x34, 0x5f, 0x99, 0xbb, 
 0xd2, 0x5a, 0x1e, 0xbe, 0xbf, 0xd7, 0x32, 0xbc, 0x39, 0xf6, 0x40, 0x3e, 
 0x81, 0xdb, 0x81, 0xbd, 0xd1, 0x0f, 0x3b, 0x3e, 0xbd, 0x3d, 0x43, 0xbd, 
 0x3c, 0x72, 0xc8, 0xbd, 0x45, 0x91, 0xc1, 0x3b, 0xa4, 0xea, 0x4d, 0x3e, 
 0x90, 0x2b, 0x89, 0xbd, 0x4d, 0x8c, 0x13, 0x3e, 0x95, 0x48, 0x71, 0x3e, 
 0x7f, 0xe2, 0x64, 0x3e, 0xa5, 0xd0, 0x7e, 0xbd, 0x51, 0x69, 0x01, 0x3e, 
 0x38, 0x91, 0xc0, 0xbd, 0x91, 0x78, 0xa2, 0xbd, 0xdd, 0x23, 0xf5, 0xbd, 
 0x00, 0x8d, 0xd4, 0xbd, 0x02, 0x81, 0x2e, 0x3e, 0xec, 0xb6, 0x2c, 0x3e, 
 0xd9, 0xc1, 0x43, 0xbe, 0x85, 0x48, 0x5a, 0xbe, 0xf4, 0x58, 0x50, 0xbe, 
 0x07, 0xcc, 0x46, 0x3e, 0x6c, 0x4d, 0x10, 0xbe, 0xce, 0x51, 0xea, 0xbd, 
 0x4b, 0xfb, 0x83, 0xbd, 0x71, 0x85, 0x39, 0xbd, 0xde, 0x76, 0x89, 0xbd, 
 0x32, 0xa9, 0x62, 0xbd, 0xae, 0x08, 0xe2, 0xbc, 0x60, 0x6c, 0xa7, 0x3d, 
 0x81, 0x2c, 0xfd, 0x3c, 0x75, 0x88, 0xbe, 0xbd, 0xe4, 0x5a, 0x11, 0x3e, 
 0xde, 0x7d, 0x54, 0x3e, 0x56, 0xdf, 0x4b, 0x3e, 0x65, 0xc2, 0xa4, 0x3d, 
 0x25, 0xe8, 0x40, 0x3e, 0x64, 0x4d, 0x00, 0xbe, 0xef, 0x6b, 0x08, 0x3e, 
 0x21, 0x8d, 0x9e, 0xbd, 0x70, 0x4e, 0xba, 0x3d, 0x3e, 0xa5, 0x9f, 0xbb, 
 0x55, 0xf2, 0xbc, 0xbc, 0x97, 0x49, 0xfd, 0xbc, 0xc1, 0xc8, 0xb3, 0xbd, 
 0x58, 0x77, 0xa9, 0xbd, 0x79, 0xaa, 0x30, 0x3c, 0x6a, 0x06, 0xf6, 0xbd, 
 0xb3, 0x5e, 0x80, 0xbd, 0x8f, 0xf1, 0xcd, 0xbd, 0xa0, 0x92, 0x10, 0x3e, 
 0x94, 0x9d, 0x43, 0x3d, 0x3a, 0x14, 0x39, 0x3d, 0x8f, 0xeb, 0xd7, 0xbb, 
 0xf3, 0xb6, 0x0d, 0xbe, 0x6d, 0x2f, 0xad, 0x3d, 0x63, 0xe0, 0xfa, 0xbd, 
 0x06, 0x00, 0x8d, 0xbd, 0x6a, 0xef, 0x3c, 0x3e, 0x00, 0xbb, 0xc6, 0xbd, 
 0x60, 0xb9, 0xab, 0xbd, 0xe4, 0x12, 0xb2, 0x3d, 0x58, 0x5b, 0x3f, 0x3e, 
 0xae, 0x29, 0xc8, 0xbc, 0x7a, 0xb5, 0xd9, 0x3d, 0xe9, 0xab, 0xa0, 0xbd, 
 0x00, 0xbe, 0x0c, 0xbe, 0xd1, 0xdd, 0xdf, 0xbc, 0x77, 0x78, 0xcc, 0x3d, 
 0xbd, 0x1f, 0xa2, 0x3d, 0x92, 0xad, 0xc2, 0x3d, 0xf5, 0xd3, 0xcc, 0x3d, 
 0xf4, 0xd7, 0xe6, 0xbc, 0x9d, 0x87, 0x02, 0x3d, 0x32, 0xc8, 0xc8, 0xbc, 
 0xe6, 0x39, 0xbb, 0xbd, 0x33, 0xc8, 0xf4, 0xbd, 0x98, 0xa7, 0x9a, 0x3d, 
 0x75, 0x3b, 0xe8, 0x3d, 0xfe, 0x3b, 0x94, 0x3c, 0x6a, 0xf0, 0x2a, 0xbd, 
 0xeb, 0x4a, 0x2b, 0x3e, 0x2d, 0xf3, 0x60, 0xbe, 0x32, 0xa0, 0xad, 0xbd, 
 0x22, 0x05, 0x78, 0x3d, 0x1c, 0x0f, 0x2f, 0x3e, 0x93, 0x4a, 0xce, 0xbd, 
 0xf6, 0x43, 0x2d, 0xbe, 0x1f, 0x71, 0xbe, 0x3b, 0x80, 0xb0, 0x63, 0x3b, 
 0xd1, 0x95, 0xb4, 0xbd, 0x03, 0x4c, 0xbd, 0x3c, 0x39, 0x2c, 0x38, 0x3e, 
 0xb9, 0x3d, 0x1e, 0xbe, 0xbd, 0x3d, 0x36, 0xbc, 0x77, 0x09, 0x28, 0x3d, 
 0xfa, 0x7f, 0xc2, 0x3c, 0x56, 0xe8, 0x41, 0x3e, 0x1b, 0xbb, 0xa0, 0x3d, 
 0xf3, 0x4e, 0x01, 0xbc, 0x15, 0xe0, 0x10, 0xbe, 0x6a, 0xf4, 0xec, 0x3c, 
 0x47, 0x52, 0x43, 0xbd, 0x48, 0x0b, 0x50, 0xbc, 0xf8, 0xcb, 0x86, 0xbb, 
 0x53, 0x41, 0x45, 0x3d, 0x0e, 0x7b, 0x5f, 0xbd, 0xd6, 0x9c, 0x1a, 0xbd, 
 0x8f, 0x21, 0x4d, 0xbe, 0x9c, 0x81, 0x10, 0x3e, 0x3c, 0x01, 0x85, 0x3d, 
 0x48, 0x3e, 0x0e, 0xbe, 0x7b, 0x0a, 0x26, 0xb9, 0xe2, 0xf6, 0x94, 0xbd, 
 0x7d, 0x18, 0x4d, 0xbd, 0xf6, 0x3b, 0x04, 0xbe, 0x37, 0xc6, 0x30, 0xbd, 
 0x84, 0xc0, 0x16, 0x3e, 0x24, 0x3c, 0x80, 0x3d, 0x4a, 0x1c, 0xe1, 0x3c, 
 0xfb, 0xd0, 0x0b, 0x3e, 0x06, 0xcf, 0x2a, 0xbe, 0xef, 0xce, 0x20, 0xbe, 
 0x47, 0x78, 0x79, 0x3d, 0xe7, 0xa2, 0xfb, 0xbd, 0x68, 0x26, 0x34, 0x3c, 
 0x90, 0x89, 0xed, 0xbd, 0x8f, 0x29, 0x46, 0x3d, 0xde, 0xc8, 0xfc, 0xbc, 
 0xe3, 0x18, 0xf9, 0x3d, 0xcb, 0xc8, 0xb1, 0x3d, 0x09, 0x1b, 0x6d, 0xbd, 
 0x28, 0x77, 0x5a, 0xbd, 0x06, 0x20, 0xec, 0x3d, 0xa7, 0x99, 0xcc, 0x3d, 
 0x94, 0x64, 0x92, 0x3d, 0xf2, 0x61, 0xb8, 0x3d, 0xc4, 0x28, 0x9c, 0xbd, 
 0x1c, 0x3a, 0x0a, 0xbc, 0xf1, 0x06, 0x3d, 0xbe, 0x43, 0x16, 0x08, 0x3e, 
 0x6a, 0x5e, 0x36, 0xbe, 0xfd, 0x5b, 0x9b, 0x3c, 0x97, 0xf1, 0xe9, 0xbd, 
 0x87, 0xa3, 0x07, 0x3b, 0x21, 0xea, 0x42, 0xbd, 0xf4, 0x0e, 0x58, 0xbd, 
 0xae, 0x4b, 0x01, 0x3d, 0xa1, 0x33, 0x19, 0xbe, 0xfc, 0x67, 0xa8, 0xbd, 
 0x20, 0x2b, 0x3f, 0x3d, 0x7e, 0xac, 0x07, 0x3d, 0xf8, 0x46, 0x89, 0x3d, 
 0x6b, 0xf1, 0xd7, 0x3c, 0x6c, 0xd2, 0xea, 0x3d, 0x7c, 0x57, 0x18, 0xbd, 
 0x25, 0x2c, 0xb1, 0x3b, 0xf8, 0xc7, 0x23, 0xbd, 0xde, 0x2b, 0x2d, 0xbb, 
 0xd9, 0x4f, 0x11, 0x3b, 0x13, 0xa0, 0x70, 0x3e, 0x29, 0x51, 0xfd, 0xbd, 
 0x3b, 0x9e, 0x00, 0x3e, 0x51, 0x6c, 0x5d, 0xbd, 0x93, 0x57, 0xcb, 0xbd, 
 0x3a, 0x90, 0x57, 0xbd, 0x4e, 0x04, 0x49, 0xbc, 0xb7, 0x1d, 0x40, 0xbb, 
 0x5d, 0x77, 0xb1, 0x3c, 0xe4, 0x88, 0x07, 0x3d, 0x8c, 0x86, 0xb0, 0x3b, 
 0x6d, 0xa6, 0xa2, 0x3c, 0xbe, 0xae, 0x0d, 0x3d, 0xc6, 0x51, 0x2a, 0x3c, 
 0xce, 0x10, 0xce, 0x3c, 0x3e, 0xf9, 0x07, 0x3e, 0xb8, 0xf5, 0xc4, 0xbc, 
 0x08, 0xe7, 0xa2, 0x3d, 0x66, 0xe9, 0x6a, 0xbd, 0x85, 0x23, 0xc9, 0x3d, 
 0x16, 0xdf, 0x34, 0xbd, 0x7a, 0x08, 0x06, 0xbd, 0x6e, 0x09, 0x21, 0xbd, 
 0xaa, 0x0d, 0x01, 0x3e, 0x13, 0xcd, 0x86, 0xbd, 0x59, 0x9a, 0xb1, 0xbd, 
 0x5a, 0xec, 0x1e, 0xbe, 0xf7, 0x30, 0x8c, 0xbd, 0xfd, 0xbb, 0x23, 0xbd, 
 0xfb, 0x64, 0x89, 0xbc, 0xce, 0xf4, 0x72, 0xbb, 0x4c, 0xd8, 0x4e, 0xbd, 
 0x16, 0xcf, 0x81, 0xbc, 0xce, 0x8d, 0xb6, 0x3c, 0xb6, 0x48, 0x9d, 0x3c, 
 0x9a, 0xad, 0xe1, 0x39, 0xb5, 0x35, 0x0c, 0x3d, 0x6f, 0xa3, 0xac, 0x3c, 
 0x04, 0xc6, 0x4d, 0xbd, 0x5f, 0xa8, 0x19, 0xbe, 0x17, 0x49, 0x19, 0xbe, 
 0x40, 0xcb, 0x2d, 0xbc, 0xad, 0xf7, 0x1a, 0x3c, 0x4a, 0xcf, 0x5d, 0x3d, 
 0x3c, 0x71, 0xa1, 0xbd, 0x74, 0x58, 0xdd, 0x3d, 0xeb, 0x57, 0x27, 0xbd, 
 0x7a, 0x9e, 0x05, 0x3c, 0xd2, 0x8b, 0x05, 0xbd, 0xc9, 0xc0, 0x81, 0x3d, 
 0x5b, 0x38, 0x6f, 0x3c, 0xe6, 0xa9, 0xc9, 0x3d, 0xa5, 0x7e, 0xb1, 0xbd, 
 0x12, 0x6d, 0xaa, 0x3d, 0x5f, 0xb6, 0x79, 0xbd, 0x51, 0x7a, 0x49, 0xbe, 
 0xd9, 0x6f, 0x6f, 0x3b, 0x3d, 0x34, 0xeb, 0x3d, 0xfa, 0xed, 0x28, 0xbe, 
 0x23, 0xd5, 0xff, 0xbd, 0x57, 0x24, 0xa9, 0xbd, 0xfa, 0xc5, 0x5c, 0xbd, 
 0x54, 0xe4, 0xf3, 0xbb, 0x3d, 0xa2, 0xdd, 0x3d, 0x7a, 0x81, 0xd6, 0xbd, 
 0xd9, 0xb8, 0x41, 0xbe, 0x3b, 0x26, 0x15, 0xbe, 0x1c, 0xfc, 0x0e, 0xbe, 
 0x11, 0x26, 0xb9, 0xbd, 0x4b, 0xbe, 0xe4, 0xbc, 0xac, 0x8b, 0x10, 0x3e, 
 0x29, 0xeb, 0xd1, 0xbd, 0x58, 0x67, 0x2d, 0xbd, 0x5d, 0xe7, 0xf2, 0x3a, 
 0xdc, 0x68, 0x22, 0x3d, 0x15, 0xcc, 0x22, 0xbb, 0xab, 0xe1, 0x5d, 0x3d, 
 0xec, 0x7c, 0x08, 0x3d, 0xad, 0xf1, 0xaa, 0xbc, 0x4f, 0xe7, 0xca, 0x3d, 
 0x56, 0xba, 0xe3, 0x3d, 0xe9, 0x0b, 0x4d, 0x3d, 0x7a, 0xc5, 0x88, 0xbc, 
 0xa7, 0x16, 0x18, 0xbc, 0x0e, 0x58, 0x12, 0xbc, 0x18, 0xf6, 0x2f, 0xbe, 
 0xe2, 0x3e, 0x51, 0x3d, 0x13, 0x5f, 0xdb, 0x3d, 0x11, 0xf0, 0x41, 0xbd, 
 0x4e, 0x31, 0xb4, 0x3c, 0xdf, 0x1b, 0xf3, 0xbd, 0xb8, 0xe3, 0xcb, 0xbb, 
 0x02, 0x90, 0xb1, 0x3d, 0xf7, 0x39, 0xd2, 0x3d, 0x55, 0xfe, 0x0f, 0xbe, 
 0xd2, 0x90, 0x0b, 0xbd, 0xbf, 0xb0, 0xa7, 0xbd, 0x21, 0xb9, 0xed, 0x3d, 
 0x9e, 0x6f, 0x90, 0x3c, 0xe8, 0x15, 0x80, 0xbd, 0x0d, 0x00, 0x36, 0x3e, 
 0x40, 0x6f, 0xb3, 0x3d, 0xaa, 0xed, 0x5d, 0xbd, 0x36, 0x1c, 0x4e, 0xbc, 
 0x55, 0x4b, 0x92, 0xbd, 0xa0, 0xae, 0xc8, 0x3d, 0xfa, 0x58, 0x3b, 0x3d, 
 0xc4, 0x5f, 0x6a, 0xbc, 0x64, 0xa9, 0x97, 0x3d, 0xb9, 0x61, 0x0e, 0x3d, 
 0x03, 0x5c, 0x71, 0xbb, 0x63, 0x74, 0x8a, 0xbd, 0xe2, 0xd1, 0xb3, 0xbd, 
 0x61, 0x07, 0xf7, 0x3d, 0x4f, 0x50, 0x41, 0x3e, 0xf1, 0x80, 0x25, 0x3c, 
 0xaf, 0x19, 0xe8, 0xbd, 0x2a, 0xf8, 0x5c, 0xbe, 0xc3, 0x7e, 0x17, 0xbe, 
 0xf0, 0x84, 0x37, 0x3e, 0x7c, 0xd0, 0xaf, 0x3d, 0x4b, 0xce, 0xe6, 0xbd, 
 0x5d, 0x74, 0xa5, 0x3b, 0xb1, 0x10, 0x2f, 0x3c, 0x87, 0x0d, 0xe3, 0x3d, 
 0x1c, 0x10, 0xee, 0x3d, 0x59, 0x87, 0xfa, 0x3d, 0x2e, 0x1b, 0xd3, 0xbc, 
 0x9b, 0x12, 0x36, 0x3e, 0xda, 0xde, 0xaf, 0x3d, 0x28, 0x60, 0x2f, 0x3e, 
 0x7a, 0xf7, 0x18, 0xbe, 0x75, 0xfb, 0x6a, 0xba, 0x40, 0xcb, 0x44, 0x3e, 
 0x37, 0x31, 0x94, 0xbc, 0x6d, 0x3c, 0x2a, 0xbe, 0x35, 0xf0, 0x06, 0xbe, 
 0xa4, 0x6a, 0xd8, 0xbd, 0x0d, 0x0d, 0x6a, 0xbd, 0xd4, 0x8c, 0x22, 0x3d, 
 0xe6, 0xee, 0xff, 0x3d, 0x75, 0xa5, 0xce, 0x3d, 0x77, 0x1b, 0x92, 0xbd, 
 0xd3, 0x1e, 0x9c, 0xbc, 0xe4, 0xff, 0x48, 0x3d, 0x0f, 0x70, 0x11, 0xbe, 
 0x7e, 0x98, 0x0d, 0xbe, 0xc6, 0xe3, 0xb1, 0xbd, 0x15, 0x0a, 0xf3, 0x3d, 
 0x19, 0x19, 0x23, 0x3e, 0xb7, 0x97, 0x27, 0x3e, 0x5e, 0x01, 0x99, 0xbd, 
 0x8d, 0xc5, 0x20, 0x3e, 0xe2, 0xca, 0xac, 0x3d, 0xaa, 0x86, 0x80, 0x3c, 
 0xed, 0x41, 0xec, 0xbd, 0x84, 0x8b, 0x2e, 0x3e, 0x9c, 0xa3, 0x84, 0x3d, 
 0xea, 0x06, 0x1a, 0xbe, 0xa7, 0xd6, 0x0b, 0x3e, 0x8e, 0x01, 0x69, 0xbc, 
 0x98, 0x89, 0x05, 0x3e, 0xea, 0xff, 0x1a, 0x3e, 0x08, 0xf6, 0x3e, 0x3e, 
 0x05, 0x60, 0x65, 0x3d, 0xc5, 0xdf, 0x03, 0x3c, 0x1e, 0x79, 0x93, 0xbd, 
 0x12, 0x37, 0xb8, 0xbd, 0x98, 0x54, 0x4a, 0xbe, 0xda, 0x49, 0xbe, 0x3d, 
 0xed, 0x2b, 0x95, 0x3c, 0x9d, 0xe5, 0x0a, 0x3e, 0x08, 0x2b, 0x4c, 0xbe, 
 0x59, 0x23, 0x3a, 0x3e, 0xf1, 0x11, 0x90, 0xbc, 0x9b, 0xca, 0xb2, 0xbd, 
 0x8d, 0x63, 0x00, 0x3e, 0x49, 0x1a, 0x02, 0xbe, 0xbb, 0x23, 0x61, 0x3d, 
 0x63, 0xaf, 0x6f, 0xbd, 0xb9, 0x7c, 0x91, 0xbd, 0x49, 0x0c, 0x99, 0xbb, 
 0xfc, 0xf3, 0xf9, 0xbc, 0xc5, 0x48, 0xfb, 0xbd, 0xb7, 0xa6, 0x06, 0xbb, 
 0x6c, 0xa8, 0xc1, 0x3d, 0xe6, 0x08, 0xe9, 0x3d, 0x54, 0x97, 0xff, 0xbc, 
 0xec, 0x12, 0x38, 0x3e, 0x3d, 0xa3, 0x15, 0xbe, 0x89, 0xdc, 0x70, 0x3d, 
 0xc3, 0x09, 0x35, 0xbd, 0x74, 0xa6, 0xbd, 0xbd, 0xa9, 0xaa, 0xeb, 0xbc, 
 0xb0, 0x25, 0x18, 0x3e, 0x67, 0xbb, 0x19, 0x3e, 0x3e, 0x95, 0x58, 0xbc, 
 0x92, 0x57, 0x61, 0xbc, 0x24, 0x59, 0x66, 0x3b, 0x0f, 0xba, 0xaf, 0xbd, 
 0xb2, 0x72, 0x80, 0x3d, 0xa7, 0x09, 0xad, 0xbd, 0xa1, 0x95, 0x4c, 0x3d, 
 0xcc, 0x49, 0xc1, 0xbd, 0x51, 0xde, 0x8c, 0xbd, 0x32, 0xf1, 0x26, 0x3e, 
 0x93, 0x66, 0x12, 0x3e, 0xcc, 0xd4, 0xde, 0x3d, 0xd3, 0x3d, 0xd1, 0x3d, 
 0xf0, 0x93, 0x45, 0x3c, 0x51, 0x52, 0x8c, 0xbd, 0xa3, 0x31, 0x66, 0x3d, 
 0x3a, 0xc3, 0x0b, 0x3d, 0xde, 0xf9, 0x56, 0x3e, 0x1a, 0x93, 0xea, 0x3d, 
 0x47, 0x15, 0x7e, 0x3d, 0x58, 0x25, 0xf2, 0xbd, 0x8c, 0x9d, 0x3a, 0x3d, 
 0xd1, 0x40, 0x0c, 0x3d, 0xd7, 0x41, 0xf5, 0x3a, 0x1e, 0x30, 0x92, 0x3d, 
 0x03, 0xd5, 0xc9, 0xbd, 0x52, 0x72, 0x46, 0x3e, 0xb5, 0xa7, 0x78, 0xbd, 
 0x5c, 0x1e, 0xcb, 0x3d, 0xf5, 0x3c, 0xac, 0xbc, 0xa3, 0xf4, 0x04, 0xbe, 
 0xae, 0x9a, 0x35, 0x3e, 0x86, 0xb4, 0xd9, 0xbc, 0xbf, 0xcf, 0x85, 0xbd, 
 0x3e, 0x80, 0x4b, 0xbd, 0x06, 0x05, 0x3c, 0x3e, 0x90, 0xe8, 0x78, 0xbd, 
 0x53, 0x66, 0x52, 0x3d, 0x84, 0xa4, 0xcb, 0x3d, 0xe8, 0x09, 0x40, 0x3e, 
 0x4b, 0x8e, 0x2e, 0x3e, 0x37, 0x04, 0x4f, 0x3c, 0x1e, 0xc8, 0xf7, 0xbd, 
 0x10, 0xdd, 0xa7, 0xbd, 0xbe, 0x1f, 0xe8, 0x3d, 0x6f, 0xe1, 0x9c, 0xbd, 
 0xf2, 0xd2, 0xf3, 0x3d, 0x13, 0xab, 0x17, 0xbe, 0x8a, 0xe6, 0x49, 0x3d, 
 0xf4, 0x6b, 0x2a, 0x3d, 0x84, 0x53, 0x12, 0x3c, 0x97, 0xe6, 0x3c, 0x3e, 
 0xc7, 0x6d, 0x21, 0xbc, 0x59, 0x70, 0xfd, 0xbd, 0xf6, 0xb2, 0xfa, 0x3d, 
 0xa7, 0xd7, 0x1b, 0xbe, 0x46, 0x0c, 0x19, 0x3e, 0x5e, 0x1d, 0xc4, 0xbd, 
 0xbb, 0x8d, 0x99, 0xbb, 0x45, 0xa2, 0x20, 0x3e, 0x81, 0x03, 0x39, 0x3e, 
 0x1c, 0xb3, 0x66, 0xbd, 0xb8, 0xf8, 0x45, 0x3d, 0x3c, 0x8f, 0x48, 0x3d, 
 0xec, 0x1d, 0x66, 0x3d, 0x59, 0x84, 0xb0, 0xbd, 0x8f, 0x43, 0x2a, 0x3d, 
 0xa7, 0x69, 0xb4, 0x3d, 0x09, 0x5c, 0x48, 0x3d, 0x1c, 0x26, 0x8b, 0x3d, 
 0x08, 0x7f, 0xba, 0x3c, 0x73, 0x4d, 0xb1, 0x3c, 0x59, 0xab, 0x43, 0x3e, 
 0x96, 0x5b, 0x41, 0x3e, 0x5d, 0x8a, 0x8f, 0x3d, 0xea, 0x30, 0xc9, 0x3d, 
 0x5a, 0x6e, 0x05, 0x3d, 0x2a, 0x5b, 0xbe, 0xbd, 0x17, 0x80, 0x0b, 0x3e, 
 0x48, 0xc3, 0x13, 0xbd, 0x15, 0x96, 0x77, 0xbc, 0x29, 0x97, 0x20, 0x3e, 
 0x0f, 0x2c, 0x59, 0xbd, 0xf9, 0xb6, 0x12, 0x3e, 0x3d, 0x18, 0x01, 0x3e, 
 0x7c, 0x6c, 0x1f, 0x3d, 0x03, 0xcb, 0x3e, 0xbe, 0xa5, 0x12, 0x69, 0xbd, 
 0xe1, 0x26, 0x3e, 0xbe, 0x19, 0x34, 0xc0, 0x3d, 0xde, 0x30, 0x85, 0xbd, 
 0x8b, 0xaa, 0x3a, 0xbd, 0x7d, 0x94, 0x11, 0x3e, 0x86, 0x04, 0x40, 0x3e, 
 0xeb, 0xe3, 0xa9, 0xbc, 0x82, 0x40, 0xb2, 0xbd, 0x99, 0x3d, 0x41, 0xbe, 
 0x2e, 0xd1, 0xbf, 0x3c, 0xcf, 0x80, 0xd3, 0x3d, 0x11, 0xda, 0xb7, 0xbc, 
 0xb0, 0x3a, 0xd2, 0x3d, 0x1d, 0x75, 0xa0, 0xbd, 0x28, 0x56, 0x35, 0xbd, 
 0x81, 0x15, 0x9f, 0x3d, 0x50, 0x43, 0x13, 0x3d, 0x47, 0xf1, 0x05, 0x3e, 
 0x85, 0xe2, 0xe4, 0xbd, 0x0e, 0x76, 0x2e, 0xbe, 0x7b, 0xef, 0x18, 0xbd, 
 0x57, 0xe4, 0xb4, 0xbc, 0x31, 0x29, 0x05, 0x3e, 0x0a, 0x9f, 0xf9, 0xbc, 
 0xbb, 0x9e, 0x31, 0x3e, 0x1f, 0x52, 0x05, 0xbd, 0x81, 0xa3, 0x71, 0x3d, 
 0x12, 0x5e, 0x0f, 0xbe, 0xea, 0x11, 0x77, 0x3d, 0xaa, 0xd3, 0xc6, 0xbc, 
 0xbf, 0xe9, 0x9a, 0x3d, 0x53, 0xbd, 0xc5, 0x3c, 0xd3, 0xf1, 0x22, 0xbe, 
 0x59, 0x38, 0x78, 0xbd, 0xb4, 0x8f, 0x26, 0xbe, 0x9d, 0xac, 0xbf, 0x3c, 
 0x13, 0xa6, 0x04, 0x3e, 0x53, 0x44, 0x84, 0xbd, 0x65, 0xc2, 0x26, 0x3e, 
 0x81, 0x21, 0x96, 0xbc, 0xac, 0x0d, 0x4e, 0xbe, 0x4f, 0xe0, 0x68, 0xbd, 
 0x84, 0x3c, 0xb2, 0xbd, 0x20, 0x13, 0x72, 0x3a, 0x14, 0xe8, 0x64, 0xbe, 
 0x89, 0x78, 0xf4, 0x3d, 0xbf, 0x36, 0x0b, 0x3d, 0x1a, 0xe6, 0xd9, 0x3c, 
 0x63, 0x6a, 0xd1, 0x3d, 0x1c, 0x2f, 0x44, 0xbe, 0xe8, 0xf0, 0x11, 0xbe, 
 0x11, 0x4b, 0x37, 0x3e, 0x18, 0x9f, 0x4e, 0x3c, 0x60, 0xb6, 0x11, 0x3e, 
 0xbb, 0xdb, 0x5c, 0x3c, 0x98, 0x8a, 0xc2, 0x3d, 0x0b, 0xe7, 0x17, 0xbe, 
 0x71, 0x46, 0xfb, 0xbd, 0xd6, 0xa4, 0x9a, 0x3d, 0xd8, 0x08, 0xdf, 0xbd, 
 0x26, 0xc9, 0xb8, 0x3c, 0x9b, 0xc5, 0x9b, 0x3c, 0x75, 0xa2, 0x1a, 0x3e, 
 0x7a, 0x2e, 0x74, 0x3c, 0x9a, 0xc3, 0x55, 0xbe, 0x52, 0x4d, 0x64, 0xbe, 
 0xa1, 0x95, 0xe6, 0x3d, 0x56, 0x0f, 0xfb, 0x3d, 0x60, 0x25, 0xb4, 0xbd, 
 0x02, 0x03, 0x0e, 0xbe, 0xb3, 0xc8, 0xea, 0x3d, 0x3b, 0x95, 0x2b, 0xbc, 
 0x20, 0x62, 0x3f, 0x3e, 0xa4, 0x20, 0x10, 0xbe, 0x69, 0x82, 0x25, 0x3e, 
 0xc0, 0x86, 0xa2, 0x3d, 0x04, 0x50, 0xdf, 0xbc, 0x70, 0x35, 0x2d, 0x3e, 
 0x68, 0x43, 0x33, 0xbd, 0xd3, 0x49, 0x76, 0x3d, 0xb5, 0x5d, 0x41, 0x3c, 
 0xb9, 0xbc, 0x3f, 0x3e, 0xb0, 0x12, 0xa5, 0xbd, 0x4f, 0x47, 0xf2, 0x3d, 
 0xe3, 0x72, 0xa9, 0xbd, 0x94, 0xfb, 0x3d, 0x3e, 0xa9, 0x37, 0x41, 0x3e, 
 0x8b, 0x07, 0x2d, 0xbe, 0xe4, 0x22, 0x4f, 0xbd, 0xd8, 0xc7, 0x52, 0x3d, 
 0x46, 0x90, 0x76, 0xbd, 0xda, 0x87, 0x13, 0xbe, 0xee, 0x45, 0x06, 0xbd, 
 0xd5, 0xe8, 0xb2, 0x3d, 0x4e, 0x37, 0x2b, 0x3e, 0xe9, 0x11, 0x37, 0xbe, 
 0x91, 0xba, 0x54, 0xbc, 0x63, 0xbb, 0xbd, 0x3a, 0x29, 0xc8, 0x31, 0xbc, 
 0xb9, 0x60, 0x27, 0xbe, 0x0e, 0xbb, 0x0d, 0x3e, 0x92, 0xfc, 0x96, 0xbd, 
 0x36, 0x07, 0xe0, 0xbd, 0x8f, 0xa0, 0xc8, 0xbc, 0xff, 0xee, 0x22, 0x3e, 
 0x47, 0xc0, 0xfe, 0xbb, 0x92, 0xd7, 0x39, 0xb9, 0x1f, 0x61, 0xbc, 0x3c, 
 0x8d, 0x7a, 0x1b, 0x3e, 0x33, 0x6a, 0x24, 0xbd, 0xcc, 0x42, 0x0a, 0xbd, 
 0xe4, 0xbb, 0x91, 0xbc, 0xb6, 0xef, 0xfb, 0x3d, 0x08, 0x36, 0x22, 0x3c, 
 0x24, 0x58, 0xf2, 0xbd, 0x4d, 0x77, 0x23, 0x3e, 0x6f, 0x12, 0x32, 0xbd, 
 0x20, 0x26, 0x44, 0x3c, 0xd2, 0xf7, 0x15, 0x3d, 0x43, 0x4a, 0x94, 0x3d, 
 0x66, 0x18, 0x2e, 0x3e, 0x99, 0xb1, 0x1d, 0xbc, 0xa6, 0xb4, 0xd6, 0xbd, 
 0xaa, 0xb4, 0xc2, 0xbd, 0xa9, 0xa0, 0x01, 0xbe, 0x13, 0x5a, 0x96, 0xbd, 
 0xdf, 0x38, 0x64, 0xbd, 0x8a, 0x7d, 0x3c, 0xbe, 0xd9, 0xc1, 0x3f, 0x3e, 
 0x43, 0x2e, 0xc2, 0xbd, 0x37, 0xda, 0x89, 0xbb, 0xa4, 0x57, 0xc2, 0x3d, 
 0x9c, 0xff, 0xd6, 0xba, 0xca, 0xaa, 0x2f, 0x3d, 0x3d, 0xb3, 0x42, 0xb6, 
 0xf8, 0xa5, 0x94, 0x39, 0x43, 0xc2, 0xe0, 0x3d, 0x24, 0xa9, 0x07, 0x3b, 
 0x37, 0xab, 0x44, 0xbd, 0x8b, 0x4a, 0x16, 0xbd, 0x8f, 0x27, 0xbd, 0xbd, 
 0x81, 0x52, 0x82, 0xbc, 0x89, 0x25, 0xa8, 0xbc, 0x02, 0x72, 0xb1, 0x3c, 
 0x19, 0x0c, 0x76, 0x3c, 0xe4, 0xc2, 0xf1, 0xbc, 0x23, 0xe0, 0xc2, 0x3d, 
 0xa1, 0x7c, 0x6d, 0xa6, 0x30, 0xe6, 0x32, 0xbc, 0x16, 0x26, 0x7b, 0x3d, 
 0x34, 0xcf, 0x5c, 0xbc, 0x89, 0x21, 0x94, 0x3d, 0x63, 0xb1, 0x90, 0xbd, 
 0x77, 0x06, 0xcb, 0xbd, 0x04, 0xc9, 0x0e, 0xbe, 0xe9, 0x50, 0xd8, 0xbd, 
 0xc1, 0xff, 0xc0, 0xbd, 0xca, 0xe8, 0xeb, 0xbd, 0x1b, 0x64, 0x2f, 0x3c, 
 0xf6, 0xa2, 0xb8, 0x3d, 0x68, 0xb0, 0x62, 0xbd, 0x35, 0x1b, 0x16, 0x3e, 
 0x6b, 0x81, 0x52, 0xbc, 0xc1, 0x60, 0x1b, 0x3c, 0x8d, 0x8d, 0x57, 0xbe, 
 0x3b, 0xd5, 0x75, 0x3d, 0x0b, 0x34, 0xad, 0x3c, 0xa1, 0x12, 0x54, 0xbc, 
 0x58, 0xaf, 0x82, 0x3d, 0x05, 0x50, 0xb2, 0xbd, 0x7d, 0x83, 0x98, 0x3c, 
 0x7c, 0xe7, 0x30, 0xbb, 0xad, 0x10, 0x7a, 0xbd, 0x21, 0xd0, 0xf8, 0xbd, 
 0xf2, 0x8c, 0x25, 0xbd, 0xcd, 0x64, 0xf0, 0xbd, 0x66, 0x30, 0x8b, 0x3d, 
 0xaa, 0x18, 0xda, 0x3d, 0x06, 0x98, 0x96, 0xbc, 0xc7, 0xd5, 0xbe, 0x3d, 
 0xb1, 0xa3, 0xf0, 0xbd, 0xa2, 0x88, 0x43, 0xbe, 0x97, 0x9b, 0x12, 0xbd, 
 0xda, 0x4b, 0xad, 0xbd, 0x16, 0xb8, 0x9a, 0x3d, 0x86, 0xc9, 0x47, 0x3e, 
 0x2b, 0xb9, 0x89, 0xbd, 0x60, 0x6c, 0xfd, 0x3d, 0x59, 0xbf, 0x33, 0xbd, 
 0xf9, 0xab, 0x4b, 0x3d, 0x85, 0xc8, 0x0c, 0xbe, 0x40, 0xcc, 0x08, 0x3e, 
 0x16, 0x8a, 0xfa, 0x3d, 0x28, 0x68, 0x27, 0xbc, 0xcb, 0x69, 0xa0, 0x3b, 
 0xbc, 0x76, 0xae, 0x3c, 0xcb, 0xee, 0x10, 0xbd, 0x68, 0x1f, 0x3e, 0x3e, 
 0xbc, 0xe1, 0x81, 0xbd, 0x36, 0xf8, 0x0a, 0xbd, 0x81, 0x85, 0xbb, 0xbc, 
 0x18, 0x70, 0x05, 0xbe, 0x7f, 0xbf, 0xd2, 0x3d, 0xa4, 0x55, 0xc4, 0x3d, 
 0x69, 0x1c, 0x8b, 0x3d, 0x8a, 0x7f, 0xd2, 0xbc, 0x69, 0x60, 0xdb, 0x3b, 
 0x96, 0x4a, 0x93, 0xbb, 0x34, 0xbc, 0x35, 0x3d, 0x93, 0x5c, 0x35, 0xbd, 
 0x43, 0xb5, 0x12, 0x3d, 0x80, 0x92, 0xdb, 0x3d, 0x2a, 0xa5, 0x80, 0x3d, 
 0x8d, 0xe4, 0x3d, 0xbd, 0x4c, 0x9e, 0x1e, 0xbb, 0xde, 0x1f, 0xdb, 0xba, 
 0x9e, 0xc7, 0xbc, 0x3d, 0x0a, 0x3e, 0x98, 0xbd, 0xba, 0xf7, 0x06, 0x3e, 
 0xb5, 0x70, 0xc6, 0xbd, 0x17, 0x64, 0xa1, 0xbd, 0x26, 0x5e, 0x98, 0x3b, 
 0xdf, 0x18, 0xe4, 0xbd, 0xd7, 0xd0, 0xaf, 0x3c, 0x28, 0x3c, 0xe7, 0xbd, 
 0xff, 0x0a, 0xcb, 0x3c, 0x1f, 0xcc, 0x63, 0xbd, 0x9e, 0xd4, 0x0f, 0xbe, 
 0xef, 0xb4, 0x2a, 0x3c, 0x84, 0x06, 0xe3, 0xbb, 0x4f, 0xb9, 0xaf, 0x3d, 
 0x83, 0xab, 0xc8, 0x3d, 0x2c, 0x9e, 0xba, 0xbd, 0x66, 0x1e, 0x36, 0x3d, 
 0x34, 0xfc, 0xbe, 0xbc, 0x77, 0x83, 0x26, 0x39, 0x7a, 0xeb, 0xde, 0x3d, 
 0x50, 0xf1, 0x62, 0xbd, 0x95, 0x33, 0x39, 0x3c, 0xf1, 0xa5, 0x83, 0x3c, 
 0xa7, 0xaa, 0x15, 0x3c, 0xa5, 0x79, 0xb9, 0x3d, 0xfd, 0xa4, 0x8e, 0x3c, 
 0xac, 0xb0, 0x5a, 0x3d, 0xd6, 0x3b, 0x7f, 0xbd, 0xec, 0x99, 0x4f, 0xbc, 
 0xc2, 0x92, 0x15, 0x3e, 0x7a, 0xf6, 0x09, 0xbe, 0x40, 0x8e, 0xed, 0x3c, 
 0x5a, 0xad, 0x9c, 0xbd, 0xa8, 0x1e, 0xe5, 0x3c, 0x1a, 0xe1, 0x06, 0xbe, 
 0x05, 0xdb, 0xe4, 0xbd, 0xe7, 0x66, 0xc4, 0x3c, 0x60, 0xfc, 0x5b, 0x3d, 
 0x93, 0x63, 0x57, 0x3d, 0x1d, 0xc0, 0x0d, 0x3e, 0x2f, 0xd2, 0x5d, 0xbe, 
 0x65, 0xef, 0x52, 0xbc, 0x6c, 0x2b, 0x91, 0x3d, 0x6c, 0xbd, 0xb7, 0xbd, 
 0xb2, 0x76, 0x04, 0x3e, 0xcc, 0x21, 0xaf, 0xb9, 0x1e, 0xa2, 0x46, 0xbb, 
 0x2c, 0xec, 0x37, 0x3e, 0x2d, 0x23, 0x3b, 0x3d, 0x98, 0xc5, 0xc6, 0x3c, 
 0x74, 0x3f, 0x05, 0xbb, 0x35, 0x9c, 0x46, 0xbe, 0x03, 0xf4, 0x4d, 0x3e, 
 0xac, 0x86, 0x8e, 0x3b, 0x62, 0x70, 0xab, 0xbd, 0xbc, 0x16, 0x96, 0xbd, 
 0x8e, 0x27, 0x15, 0xbe, 0x44, 0xc3, 0x57, 0xbc, 0x60, 0x0d, 0x3f, 0x3d, 
 0x74, 0x66, 0xaf, 0x3d, 0x95, 0x4a, 0xd4, 0xbd, 0x7d, 0x9a, 0x97, 0x3d, 
 0x31, 0xbb, 0x3e, 0x3e, 0x42, 0x43, 0xc0, 0x3d, 0x26, 0x54, 0x03, 0xba, 
 0xc5, 0x43, 0xa4, 0xbd, 0xa6, 0x55, 0xa6, 0xbd, 0x57, 0x92, 0xcb, 0xbc, 
 0x1f, 0xc0, 0x2f, 0x3e, 0xc8, 0x67, 0x1f, 0xbe, 0x5b, 0x48, 0xbc, 0xbc, 
 0xc7, 0x38, 0x6c, 0xbd, 0x92, 0x22, 0x27, 0x3e, 0xe8, 0xb0, 0x49, 0x3d, 
 0x7e, 0x90, 0x0c, 0x3d, 0x8d, 0x40, 0x0c, 0x3e, 0x0d, 0xb7, 0x07, 0x3e, 
 0xe8, 0x19, 0x8e, 0xbd, 0x6b, 0x12, 0x28, 0xbe, 0xfe, 0x3a, 0x34, 0xbe, 
 0x8e, 0x6b, 0xb9, 0xbc, 0xe1, 0x64, 0x02, 0xbc, 0xb1, 0x6c, 0xb8, 0x3d, 
 0x2a, 0x3f, 0xf7, 0xbd, 0xa6, 0x9e, 0x06, 0x3e, 0x86, 0x87, 0x68, 0x3d, 
 0x5d, 0xa4, 0x18, 0x3d, 0x82, 0x6c, 0x2a, 0x3b, 0xb6, 0xe3, 0xc0, 0x39, 
 0xac, 0xb9, 0x1d, 0x3e, 0xc7, 0x7e, 0x04, 0x3e, 0xf1, 0xf7, 0xa3, 0x3d, 
 0x90, 0x04, 0x3a, 0x36, 0xaa, 0x91, 0x4e, 0x3d, 0xa8, 0x89, 0x9b, 0x3d, 
 0x11, 0x4f, 0xd5, 0x3c, 0x10, 0x63, 0x46, 0xbe, 0x25, 0xf7, 0x0c, 0x3e, 
 0x6e, 0x66, 0x42, 0xbe, 0x2e, 0x32, 0x92, 0xbc, 0x77, 0x70, 0x43, 0xbd, 
 0xbc, 0xc1, 0x91, 0xbd, 0xa4, 0x59, 0xa9, 0x3d, 0x98, 0x31, 0x65, 0x3e, 
 0xc5, 0x7c, 0x97, 0xbd, 0x03, 0x2c, 0xc9, 0xbb, 0x8d, 0x5d, 0x8c, 0x3d, 
 0x2a, 0x20, 0x07, 0x3e, 0x42, 0x6d, 0xd9, 0xbd, 0x2f, 0xf5, 0x86, 0x3d, 
 0xa3, 0x2e, 0xd0, 0xbd, 0xb7, 0xc8, 0x17, 0x3e, 0x06, 0xe3, 0xe0, 0x3d, 
 0xf1, 0xb4, 0x18, 0xbd, 0xce, 0xcc, 0x2d, 0x3e, 0x3c, 0x72, 0x92, 0xbd, 
 0xf3, 0x8a, 0xbd, 0xbd, 0xd0, 0x24, 0x8d, 0x3b, 0xec, 0x0c, 0x49, 0x3e, 
 0x98, 0xb0, 0x1e, 0xbe, 0x81, 0x4b, 0x1e, 0x3d, 0x72, 0x46, 0xf8, 0x3d, 
 0x8b, 0xab, 0x28, 0xbe, 0xe5, 0xcf, 0xed, 0x3d, 0x8e, 0x63, 0xf3, 0xbd, 
 0x90, 0xcb, 0x30, 0x3e, 0xf2, 0xf7, 0xff, 0xff, 0x04, 0x00, 0x00, 0x00, 
 0x00, 0x08, 0x00, 0x00, 0xc6, 0x12, 0x3c, 0xbe, 0x93, 0x7b, 0xb9, 0x3d, 
 0x08, 0xa4, 0x2e, 0xbe, 0x0f, 0xa0, 0x9c, 0xbe, 0x9d, 0xf0, 0x93, 0x3e, 
 0x5e, 0x79, 0x54, 0x3d, 0x6c, 0xdf, 0x88, 0x3e, 0xdf, 0x99, 0x63, 0xbe, 
 0xf8, 0x76, 0x8d, 0x3e, 0x8b, 0x27, 0x34, 0xbe, 0x66, 0xf0, 0x32, 0xbe, 
 0xc6, 0x06, 0xd6, 0xbd, 0xa5, 0x23, 0x3f, 0x3e, 0xf9, 0xa2, 0x13, 0xbe, 
 0xb6, 0x7a, 0x07, 0x3e, 0xfb, 0x79, 0x04, 0xbe, 0x7e, 0x28, 0xae, 0xb7, 
 0x82, 0x4c, 0xbf, 0xbd, 0x70, 0xed, 0xa0, 0xbd, 0x65, 0x6c, 0x0d, 0xbe, 
 0xad, 0xd6, 0x95, 0x3d, 0x7a, 0x94, 0x80, 0x3d, 0xf6, 0xb1, 0x5a, 0x3c, 
 0xf3, 0xf1, 0x9c, 0xbd, 0x9f, 0xeb, 0xa6, 0x3e, 0xb2, 0x5c, 0x3c, 0xbe, 
 0xec, 0x05, 0x87, 0xbd, 0xaa, 0x74, 0x90, 0xbb, 0x20, 0x93, 0x72, 0x3e, 
 0x16, 0x41, 0x44, 0xbd, 0xb5, 0x5f, 0x64, 0x3e, 0x89, 0xfb, 0x4f, 0xbe, 
 0xce, 0x1b, 0x67, 0xbe, 0x12, 0x4c, 0x6c, 0x3d, 0x46, 0x8b, 0xf2, 0xbd, 
 0x07, 0x93, 0x1c, 0xbe, 0x26, 0xaa, 0xf9, 0xbd, 0xb2, 0xf6, 0x7b, 0xbd, 
 0xdd, 0x54, 0x32, 0x3e, 0x43, 0x25, 0xe1, 0xbd, 0x86, 0x64, 0xae, 0x3d, 
 0x26, 0xd5, 0xda, 0x3d, 0xbf, 0xeb, 0xec, 0xbc, 0x34, 0x72, 0xbc, 0x3d, 
 0xe8, 0xf9, 0x82, 0x3e, 0x0e, 0x6a, 0x66, 0xbc, 0x12, 0x69, 0x0c, 0x3e, 
 0xd4, 0xa8, 0x62, 0xbd, 0xd3, 0xe6, 0x24, 0xbe, 0x55, 0xca, 0x48, 0xbc, 
 0x0a, 0x41, 0xaa, 0x3d, 0x72, 0xdb, 0x60, 0xbd, 0x55, 0xbf, 0x02, 0xbe, 
 0x3a, 0x9f, 0xe5, 0xbc, 0x1f, 0xd4, 0xd5, 0xbd, 0xa5, 0x4b, 0xdc, 0xbc, 
 0xc4, 0x0f, 0x76, 0x3d, 0xc3, 0x67, 0x90, 0x3e, 0x3d, 0x04, 0x60, 0x3e, 
 0xe2, 0x70, 0x8b, 0xbd, 0x72, 0x58, 0xf8, 0x3c, 0x06, 0x72, 0x27, 0xbe, 
 0x9d, 0xcd, 0x42, 0x3e, 0xf0, 0x31, 0x8b, 0x3e, 0x49, 0x5e, 0x3a, 0x3d, 
 0x74, 0xb5, 0xf0, 0x3d, 0xec, 0x38, 0x1b, 0xbe, 0x51, 0x40, 0xfb, 0x3b, 
 0x5a, 0x01, 0xd7, 0xbd, 0x70, 0x44, 0xd5, 0x3d, 0x71, 0x45, 0x0f, 0x3c, 
 0x9a, 0xf9, 0x40, 0xbe, 0xbf, 0x0d, 0xad, 0x3d, 0xc2, 0x50, 0x1b, 0xbe, 
 0x3b, 0x1b, 0xfa, 0xbd, 0x5b, 0x09, 0xde, 0x3d, 0x8a, 0xdf, 0xca, 0xbd, 
 0x1e, 0xec, 0x9c, 0xbb, 0x0e, 0xf3, 0x1e, 0xbe, 0xe7, 0xa1, 0x6a, 0xbd, 
 0xc5, 0x0a, 0xab, 0x3d, 0x2e, 0x35, 0x5a, 0x3d, 0xe4, 0x5b, 0x39, 0x3e, 
 0x32, 0xb2, 0x4b, 0x3d, 0xbb, 0xb0, 0x54, 0x3e, 0x2a, 0xb0, 0x1a, 0xbe, 
 0xac, 0x75, 0x32, 0x3d, 0xf2, 0x9d, 0xca, 0x3b, 0x18, 0x87, 0x6f, 0x3d, 
 0x20, 0x05, 0x31, 0xbe, 0xf2, 0x3b, 0xa8, 0x3e, 0x9d, 0xc7, 0x39, 0xbd, 
 0x2a, 0xa4, 0x2f, 0xbe, 0x67, 0x24, 0x81, 0x3e, 0xf3, 0xc6, 0x1d, 0xbe, 
 0xba, 0x76, 0x2b, 0xbe, 0x96, 0xb2, 0x86, 0x3c, 0xeb, 0x0d, 0xca, 0xbc, 
 0x7e, 0x77, 0x91, 0xbd, 0x71, 0x8d, 0x07, 0xbe, 0x71, 0x3a, 0x42, 0xbe, 
 0x20, 0x14, 0x85, 0x3e, 0x98, 0x87, 0x35, 0xbe, 0xe8, 0x43, 0x52, 0x3d, 
 0xae, 0x1c, 0xf0, 0x3d, 0xda, 0x3c, 0x64, 0x3d, 0x7d, 0xa4, 0xa1, 0xbc, 
 0xf6, 0xdd, 0xa4, 0xbd, 0xb4, 0x32, 0x19, 0xbe, 0x5e, 0x79, 0x85, 0x3e, 
 0xd6, 0x0f, 0x6b, 0x3e, 0xb5, 0xa6, 0x86, 0xbe, 0xb1, 0xb1, 0x3f, 0x3b, 
 0xf6, 0xbd, 0x9f, 0x3d, 0x58, 0xbd, 0x82, 0x3e, 0x52, 0xc5, 0x1c, 0xbe, 
 0xf2, 0x29, 0x5c, 0x3c, 0xc3, 0x96, 0x0b, 0x3e, 0xd6, 0x83, 0xb5, 0xbd, 
 0xa5, 0x2e, 0x52, 0xbc, 0x6d, 0xc2, 0x87, 0x3e, 0xcd, 0xcb, 0x02, 0x3e, 
 0xcd, 0xad, 0x0f, 0x3d, 0xd8, 0x95, 0xaa, 0x3e, 0x18, 0xeb, 0xee, 0x3c, 
 0x8a, 0x31, 0x6e, 0x3a, 0x2e, 0x8f, 0xd1, 0x3d, 0x73, 0x57, 0x0b, 0xbe, 
 0xce, 0xcd, 0x2d, 0x3e, 0x13, 0x72, 0x71, 0xbc, 0xee, 0xf1, 0xcf, 0x3d, 
 0x68, 0x00, 0x75, 0x3e, 0xc7, 0xb8, 0x19, 0xbe, 0xc0, 0x2a, 0xf1, 0x3d, 
 0xf3, 0x0a, 0x6c, 0xbe, 0x9e, 0x99, 0xb0, 0xbd, 0xdc, 0xde, 0x59, 0xbe, 
 0x9c, 0x23, 0x94, 0xbc, 0x7c, 0x6e, 0x33, 0xbd, 0x9b, 0x4b, 0x4c, 0xbc, 
 0x93, 0xb9, 0x8c, 0xbe, 0x33, 0x6c, 0xd5, 0xbd, 0x62, 0x8d, 0x5e, 0x3d, 
 0xc0, 0x36, 0xd3, 0x3c, 0x58, 0x13, 0xcd, 0xbb, 0x54, 0x14, 0xa6, 0x3d, 
 0xb0, 0xf9, 0x8f, 0x3e, 0x48, 0x1e, 0xd7, 0xbd, 0x96, 0x14, 0x20, 0x3e, 
 0x7b, 0xe4, 0xec, 0xbc, 0xd7, 0x61, 0x05, 0xbe, 0x3d, 0x0e, 0x18, 0x3c, 
 0x70, 0xd2, 0xe4, 0xbc, 0x24, 0xfa, 0x6f, 0x3e, 0x71, 0xc8, 0xd0, 0x3d, 
 0x09, 0xb9, 0xf3, 0x3d, 0xfb, 0x85, 0x0f, 0xbe, 0x8e, 0x44, 0x5f, 0xbd, 
 0xae, 0xb8, 0x9a, 0xbd, 0x66, 0x4c, 0x5f, 0xbc, 0x67, 0x92, 0x14, 0xbe, 
 0xb9, 0x7a, 0x3c, 0x3b, 0xed, 0xcd, 0x56, 0xbc, 0x5f, 0xd3, 0x14, 0xbe, 
 0xf9, 0x5f, 0x99, 0x3c, 0x8f, 0xdc, 0xfb, 0x3c, 0x78, 0x95, 0xc9, 0x3d, 
 0x7a, 0x1f, 0x67, 0x3d, 0x8c, 0xbd, 0xba, 0x3d, 0xd9, 0x03, 0x69, 0x3e, 
 0xde, 0x46, 0xd7, 0xbc, 0x4d, 0x14, 0x54, 0x3d, 0xbb, 0xc7, 0xfc, 0x3d, 
 0x6f, 0xaa, 0x92, 0xbd, 0xe2, 0xde, 0x85, 0x3c, 0x1a, 0xbd, 0x24, 0xbe, 
 0xec, 0x0a, 0xd1, 0xba, 0xfa, 0x8e, 0xfe, 0xbc, 0xbb, 0x05, 0xf8, 0x3d, 
 0xbd, 0xff, 0xe7, 0x3d, 0x09, 0x1f, 0x72, 0x3e, 0x65, 0x3a, 0x3c, 0xbc, 
 0x09, 0xbc, 0x6f, 0xbc, 0x1b, 0xf2, 0x10, 0xbc, 0x37, 0xcf, 0x70, 0xbc, 
 0x32, 0xcc, 0xa4, 0xb9, 0x1f, 0x90, 0x7b, 0xbe, 0xbc, 0x35, 0x8c, 0x3e, 
 0xe7, 0x2a, 0x29, 0x3e, 0x37, 0xcc, 0x0a, 0xbe, 0xaa, 0x2f, 0x3b, 0x3e, 
 0x7d, 0xd7, 0x04, 0xbe, 0x91, 0x6d, 0x23, 0xbc, 0x43, 0xdb, 0xef, 0xbb, 
 0x53, 0xff, 0x30, 0xbe, 0xa9, 0xef, 0x30, 0xbe, 0x6a, 0x13, 0x9c, 0xbd, 
 0x06, 0x54, 0x6e, 0x3e, 0xcd, 0x9b, 0x88, 0xbc, 0x1b, 0xda, 0xb5, 0x3d, 
 0xad, 0x23, 0x4e, 0xbe, 0xa5, 0x30, 0x5e, 0xbe, 0x7c, 0xc9, 0x4b, 0xbd, 
 0x42, 0x56, 0xda, 0xbd, 0x4b, 0x2e, 0x07, 0xbe, 0x17, 0xee, 0x66, 0xbe, 
 0xd4, 0x46, 0x91, 0x3d, 0x87, 0xd7, 0x43, 0x3e, 0x00, 0x36, 0x6a, 0x3d, 
 0x53, 0x67, 0x08, 0x3e, 0xa0, 0xe5, 0x08, 0xbe, 0xa4, 0x88, 0x53, 0xbe, 
 0x0c, 0x3b, 0x29, 0xbc, 0xb6, 0xf7, 0x5b, 0x3c, 0x3e, 0x5d, 0x57, 0x3d, 
 0x8c, 0x04, 0x94, 0x3d, 0x6c, 0x28, 0x6e, 0x3d, 0xa4, 0x61, 0x11, 0xbd, 
 0x1f, 0xd4, 0x37, 0x3e, 0x61, 0x60, 0xfc, 0x3d, 0x37, 0x93, 0x85, 0x3d, 
 0xc0, 0x90, 0x36, 0x3e, 0xf4, 0x8f, 0x30, 0x3e, 0x0c, 0xf4, 0x57, 0xbe, 
 0x45, 0x73, 0x48, 0xbc, 0x9a, 0xef, 0x87, 0xbd, 0x1f, 0x33, 0x06, 0xbe, 
 0xac, 0x59, 0x8a, 0xbe, 0x63, 0xc0, 0xe9, 0xbd, 0x28, 0xef, 0x8b, 0x3e, 
 0x72, 0xe1, 0x9f, 0xbb, 0xd8, 0xe3, 0x70, 0x3e, 0x42, 0x15, 0x1b, 0x3e, 
 0x1f, 0x3f, 0x49, 0x3e, 0xa5, 0x89, 0x40, 0x3d, 0x11, 0x01, 0xd0, 0x3b, 
 0x5f, 0xf7, 0x86, 0x3e, 0xfe, 0x7e, 0xe8, 0x3d, 0x9b, 0x3b, 0x94, 0xbe, 
 0xfc, 0x08, 0x8d, 0x3e, 0x9b, 0xa7, 0x31, 0x3e, 0xc3, 0xc8, 0x04, 0xbe, 
 0xe1, 0xb8, 0xdd, 0x3d, 0x72, 0x72, 0x1b, 0xbe, 0x9d, 0x9d, 0x00, 0xbd, 
 0x4e, 0x3f, 0x15, 0xbe, 0xb5, 0x11, 0xf2, 0xbd, 0x32, 0x9c, 0xb8, 0x3c, 
 0x76, 0x23, 0x31, 0x3d, 0xc5, 0x00, 0xa9, 0xbe, 0xc7, 0x86, 0x8c, 0xbe, 
 0xe2, 0xc3, 0x33, 0x3e, 0x54, 0x82, 0x5f, 0x3e, 0x27, 0x94, 0x15, 0x3e, 
 0x4b, 0xf9, 0x26, 0x3e, 0xa2, 0x03, 0x8e, 0x3e, 0xec, 0xeb, 0x9e, 0xbd, 
 0xf0, 0x56, 0x35, 0x3a, 0xee, 0xb7, 0xc9, 0xbb, 0x74, 0xb4, 0x7f, 0x3d, 
 0x76, 0x18, 0xa8, 0x3d, 0xd1, 0x65, 0x91, 0xbc, 0x98, 0x59, 0xab, 0x3c, 
 0x6f, 0x9b, 0xaf, 0x3c, 0x6f, 0x6d, 0x88, 0xbc, 0xd0, 0x87, 0x12, 0xbc, 
 0x98, 0x23, 0x16, 0x3d, 0x4e, 0xaa, 0x00, 0xbd, 0x3e, 0x09, 0x52, 0x3e, 
 0x51, 0x3c, 0x19, 0xbc, 0xe5, 0xd9, 0x3a, 0x3c, 0xad, 0x3e, 0xcd, 0xbd, 
 0x4a, 0x5e, 0xfb, 0xbb, 0x7e, 0x04, 0xb0, 0x3b, 0x83, 0x09, 0x17, 0x3d, 
 0xa8, 0xb1, 0x16, 0x3a, 0x59, 0x1a, 0x26, 0x3b, 0x7d, 0xfd, 0xb3, 0x3a, 
 0x70, 0xb3, 0x14, 0xbb, 0x51, 0x12, 0xc1, 0xb9, 0x5b, 0x87, 0x38, 0xbe, 
 0x99, 0x39, 0xbe, 0xbd, 0xa3, 0x22, 0xf0, 0x3c, 0x3b, 0x31, 0x68, 0xbd, 
 0xe0, 0xde, 0xdb, 0xbc, 0xa8, 0x15, 0xb9, 0x3c, 0xbb, 0x91, 0xca, 0xbc, 
 0x03, 0xb4, 0xdd, 0x3c, 0x4c, 0xc5, 0x52, 0x3e, 0x06, 0x58, 0x6b, 0xbc, 
 0xb6, 0xa3, 0xf6, 0xbd, 0xd5, 0xcc, 0x0c, 0xbe, 0xdd, 0x83, 0x81, 0x3e, 
 0xc2, 0x1c, 0xc3, 0x3d, 0xf7, 0x56, 0xc6, 0xbd, 0x28, 0xbe, 0xd2, 0x3c, 
 0xb7, 0x20, 0xba, 0xbd, 0x68, 0x6d, 0x44, 0xbd, 0x0d, 0x86, 0x00, 0x3e, 
 0x6c, 0x25, 0xb8, 0xbd, 0xe4, 0xe0, 0x4e, 0xbe, 0xc8, 0x75, 0x33, 0x3d, 
 0x76, 0xbf, 0x15, 0x3e, 0x7d, 0xc6, 0x8d, 0xbe, 0xf4, 0x66, 0x0d, 0x32, 
 0x3c, 0x68, 0x07, 0xbe, 0x54, 0xf3, 0x7d, 0xbd, 0x7f, 0x7c, 0x5a, 0xbd, 
 0x69, 0xfd, 0xb1, 0xbd, 0x1e, 0x90, 0xd7, 0xbd, 0xa4, 0x47, 0x10, 0x3d, 
 0xef, 0x8e, 0xaa, 0xbb, 0xbd, 0xa2, 0xd1, 0x3d, 0xfe, 0xf3, 0x0d, 0x3e, 
 0x26, 0x2f, 0x09, 0x3d, 0x89, 0x4a, 0x3d, 0x3e, 0x01, 0x91, 0x1f, 0x3c, 
 0x47, 0x6d, 0xc2, 0xbd, 0x9d, 0x08, 0x82, 0x3e, 0xe5, 0x3d, 0x3d, 0xbe, 
 0x13, 0x4e, 0x80, 0xbd, 0x89, 0x9e, 0xaf, 0xbd, 0x89, 0xfd, 0xe7, 0x3d, 
 0x3f, 0x03, 0xef, 0x3d, 0x2b, 0xcd, 0x20, 0xbd, 0x40, 0x8d, 0x8a, 0x3d, 
 0xbb, 0x03, 0xfd, 0x3c, 0x61, 0xb3, 0x07, 0xbe, 0x0a, 0x6d, 0xb0, 0xbd, 
 0x07, 0x44, 0x37, 0x3d, 0xd8, 0x23, 0x13, 0xbc, 0xac, 0xb3, 0x92, 0xbe, 
 0xf8, 0x3a, 0x9b, 0x3e, 0xcf, 0xbc, 0x89, 0xbe, 0x0c, 0xde, 0x9b, 0xbd, 
 0xcc, 0x63, 0x8c, 0x3e, 0x73, 0x83, 0x75, 0x3e, 0xe8, 0x32, 0x75, 0xbd, 
 0x88, 0xf5, 0x09, 0x3e, 0xcf, 0x5b, 0x72, 0x3e, 0x94, 0x6f, 0x81, 0x3d, 
 0xe6, 0xbc, 0x0b, 0xbd, 0x90, 0x8b, 0x78, 0xbc, 0x5b, 0x4b, 0x3e, 0xbe, 
 0xe9, 0xfe, 0x67, 0x3e, 0x87, 0x17, 0x68, 0xbe, 0x2a, 0x78, 0x1b, 0x3e, 
 0xec, 0x43, 0xab, 0x3d, 0x54, 0x07, 0x85, 0xbc, 0x7d, 0x7c, 0xa1, 0x3d, 
 0xa1, 0x57, 0x4c, 0x3e, 0x6a, 0x24, 0xfd, 0x3d, 0x4f, 0x51, 0x7a, 0xbd, 
 0x28, 0x1c, 0x9e, 0x3c, 0x75, 0x27, 0xcf, 0x3d, 0x02, 0x0e, 0x7b, 0xbd, 
 0xfb, 0x75, 0x3c, 0x3e, 0xf7, 0x14, 0xc8, 0xbd, 0xb4, 0x52, 0x3d, 0x3e, 
 0x90, 0x38, 0x61, 0xbd, 0xd0, 0x5a, 0xf0, 0xbd, 0x49, 0xed, 0x65, 0x3d, 
 0x59, 0x52, 0xae, 0xbb, 0x44, 0xce, 0x6d, 0xbb, 0x06, 0x97, 0x02, 0xbd, 
 0x2e, 0x14, 0x5b, 0x3e, 0x10, 0xeb, 0xbe, 0x3c, 0x0f, 0x86, 0x6d, 0xbe, 
 0x4b, 0x21, 0xca, 0x3b, 0xe7, 0x20, 0x49, 0x3c, 0x01, 0x35, 0x40, 0xbe, 
 0x4c, 0x39, 0x8e, 0xbc, 0x70, 0x3c, 0x1e, 0xbe, 0xd3, 0x2c, 0x6e, 0xbd, 
 0x5a, 0x70, 0x91, 0x3a, 0xd5, 0x20, 0xbb, 0xbb, 0xbc, 0x2f, 0xf1, 0xbc, 
 0x0d, 0x7b, 0xe6, 0x3d, 0xad, 0x4a, 0x33, 0xbe, 0x2d, 0x00, 0x1f, 0xbc, 
 0x25, 0x17, 0x01, 0xbd, 0x96, 0x6a, 0x06, 0x3d, 0xc4, 0xa2, 0x54, 0xbd, 
 0x8c, 0xee, 0x48, 0x3d, 0x77, 0x83, 0xa5, 0x3d, 0x4f, 0xd8, 0x0d, 0x3b, 
 0x48, 0xbc, 0xd7, 0x3b, 0x81, 0x7c, 0x5e, 0xbe, 0xbb, 0x3e, 0xe7, 0xbc, 
 0x6c, 0x13, 0x0e, 0xbe, 0xd2, 0x43, 0x71, 0xbd, 0x4c, 0x7a, 0x2f, 0xbe, 
 0xae, 0xe8, 0x28, 0x3e, 0xb7, 0x4a, 0x51, 0xbc, 0x80, 0xe7, 0x89, 0xbd, 
 0x28, 0x6a, 0x4d, 0xbe, 0xfb, 0xdd, 0x89, 0xbd, 0xbf, 0x2c, 0x2a, 0xbe, 
 0x7a, 0x26, 0x52, 0x3d, 0x73, 0x7f, 0x52, 0x3e, 0x6f, 0xd0, 0x59, 0x3d, 
 0x7b, 0x49, 0xa4, 0x3d, 0x76, 0xeb, 0x3f, 0x3d, 0xc2, 0xc4, 0x04, 0xbe, 
 0xfe, 0x54, 0x6d, 0x3e, 0xda, 0x8e, 0x1d, 0xbd, 0xa9, 0xc0, 0x07, 0xbe, 
 0xc3, 0xd1, 0x37, 0x3d, 0xea, 0x6f, 0x9c, 0x3d, 0xd1, 0x3a, 0x4f, 0xbe, 
 0x72, 0x9f, 0xda, 0x3c, 0x76, 0x49, 0x90, 0x3e, 0x44, 0x0b, 0x70, 0x3d, 
 0xb1, 0xff, 0xa0, 0xbd, 0x82, 0x98, 0x8a, 0xbe, 0x4c, 0x2c, 0x10, 0xbe, 
 0xad, 0x69, 0xdb, 0x3c, 0xb4, 0x23, 0x05, 0x39, 0xd5, 0x6b, 0xf0, 0x3b, 
 0x17, 0x85, 0x99, 0x3d, 0x06, 0xf8, 0xad, 0xbc, 0x9e, 0xd7, 0x44, 0x3a, 
 0x67, 0x07, 0x19, 0x3d, 0xe0, 0x4e, 0x62, 0xba, 0xaa, 0x44, 0x4c, 0xbc, 
 0xdb, 0xbc, 0x62, 0x3d, 0xa6, 0x1a, 0x14, 0xbb, 0x5a, 0xad, 0x40, 0xba, 
 0x76, 0x0b, 0x77, 0x3d, 0x48, 0xeb, 0x32, 0x3b, 0x85, 0x1c, 0x64, 0x3b, 
 0x4c, 0x47, 0x91, 0x3d, 0x4a, 0xb8, 0xa6, 0xb9, 0xf7, 0x3b, 0xec, 0xba, 
 0x06, 0xdd, 0x3a, 0x3d, 0xac, 0x67, 0xa5, 0xbc, 0x92, 0xcf, 0x26, 0xbc, 
 0xec, 0x44, 0x9e, 0x3b, 0x71, 0x48, 0xe9, 0xbb, 0x64, 0xec, 0xc3, 0x39, 
 0x51, 0xf7, 0x1f, 0xbd, 0x44, 0xe3, 0x4e, 0x3d, 0x00, 0x5b, 0x8a, 0xbd, 
 0x15, 0x60, 0x08, 0x3c, 0x06, 0xf9, 0xaa, 0x3c, 0xee, 0xdb, 0x8f, 0x3c, 
 0x43, 0x8c, 0x87, 0x3c, 0xf5, 0xe6, 0xc1, 0xbc, 0xaa, 0x74, 0x2d, 0xbe, 
 0xb6, 0x49, 0xfa, 0x3c, 0xdf, 0xb2, 0x5a, 0xbe, 0xd2, 0xf4, 0x6a, 0x3d, 
 0xb7, 0x24, 0x34, 0x3e, 0x2d, 0x3c, 0xd9, 0xbd, 0xd6, 0xf2, 0x4a, 0xbd, 
 0x43, 0xb3, 0xed, 0xbc, 0x3c, 0x86, 0x86, 0xbe, 0xc0, 0x75, 0x62, 0xbb, 
 0xed, 0xbb, 0x0a, 0xbd, 0x1d, 0x24, 0x15, 0xbc, 0xdd, 0x68, 0x9a, 0xbd, 
 0x39, 0x78, 0x4e, 0x3d, 0x0f, 0xc8, 0x02, 0xbe, 0x28, 0x4d, 0x62, 0xbe, 
 0xed, 0x59, 0xc0, 0xbd, 0x7d, 0xe6, 0x2a, 0x3e, 0xd7, 0x87, 0xe9, 0xbd, 
 0xb2, 0x94, 0xe6, 0xbc, 0x64, 0x41, 0x7a, 0x3e, 0x8a, 0x7c, 0x3f, 0xbd, 
 0x44, 0x85, 0x3c, 0xbe, 0x8b, 0xa5, 0xc2, 0xb8, 0xbe, 0x15, 0x0a, 0xbe, 
 0x46, 0x2b, 0x21, 0xbe, 0x78, 0x18, 0x86, 0x3e, 0x24, 0xdf, 0x48, 0x3e, 
 0x0d, 0xf3, 0x25, 0x3d, 0x03, 0x87, 0xcb, 0x3d, 0x57, 0xc4, 0x67, 0xbe, 
 0xc7, 0xca, 0x62, 0xbe, 0x1a, 0x54, 0x19, 0x3e, 0x5c, 0xe6, 0x7d, 0x3d, 
 0xa3, 0x2c, 0x08, 0xbe, 0x6b, 0xa5, 0xa9, 0x3d, 0x03, 0x94, 0x07, 0xbe, 
 0xf4, 0x4c, 0x47, 0x3e, 0xee, 0x68, 0x32, 0xbe, 0xe9, 0xa3, 0x4e, 0xbd, 
 0x4e, 0x57, 0x55, 0xbe, 0xed, 0xb4, 0xb0, 0x3d, 0x41, 0xe3, 0x7d, 0x3d, 
 0x00, 0x52, 0x56, 0xbe, 0x95, 0x34, 0xa5, 0x3e, 0xc2, 0xa6, 0x56, 0x3e, 
 0x64, 0x3d, 0x7c, 0xbc, 0x46, 0x25, 0x16, 0xbd, 0xb9, 0x0b, 0x32, 0xbe, 
 0x89, 0x3a, 0x1f, 0xbe, 0xa7, 0xbd, 0xac, 0xbd, 0xb3, 0xb7, 0x05, 0xbe, 
 0x65, 0x4c, 0x5c, 0xbe, 0x58, 0xd2, 0x15, 0xbd, 0xf7, 0x67, 0xe0, 0x3d, 
 0xda, 0xd4, 0x1e, 0x3d, 0x7a, 0xce, 0xa9, 0x3d, 0x90, 0x29, 0xf9, 0x3c, 
 0xfa, 0x65, 0x31, 0x3e, 0xd2, 0xae, 0x92, 0x3e, 0xa7, 0x05, 0xd8, 0xbc, 
 0x3f, 0x4c, 0xa9, 0x3c, 0xa8, 0x97, 0x23, 0x3e, 0x28, 0xbb, 0xb9, 0x3d, 
 0x00, 0x00, 0x06, 0x00, 0x08, 0x00, 0x04, 0x00, 0x06, 0x00, 0x00, 0x00, 
 0x04, 0x00, 0x00, 0x00, 0x40, 0x00, 0x00, 0x00, 0xed, 0xf5, 0x0b, 0x3f, 
 0xbe, 0x52, 0x1c, 0xbe, 0xf3, 0xf6, 0xa3, 0xbe, 0x39, 0xfc, 0x29, 0x3e, 
 0x20, 0x13, 0xab, 0xbd, 0x0b, 0x2d, 0xcd, 0x3d, 0xf7, 0x2e, 0xbb, 0xbe, 
 0xec, 0xd7, 0xfa, 0xbe, 0xab, 0xc9, 0x6a, 0xbd, 0x7f, 0x54, 0x97, 0xbe, 
 0xce, 0x3b, 0x03, 0x3f, 0x60, 0x6e, 0x96, 0x3e, 0x58, 0x54, 0xb7, 0xbe, 
 0x83, 0x2d, 0xf3, 0xba, 0xb2, 0x83, 0x0d, 0xbf, 0xd4, 0x2f, 0x90, 0xbe, 
 0xa4, 0xf9, 0xff, 0xff, 0xa8, 0xf9, 0xff, 0xff, 0x0f, 0x00, 0x00, 0x00, 
 0x4d, 0x4c, 0x49, 0x52, 0x20, 0x43, 0x6f, 0x6e, 0x76, 0x65, 0x72, 0x74, 
 0x65, 0x64, 0x2e, 0x00, 0x01, 0x00, 0x00, 0x00, 0x14, 0x00, 0x00, 0x00, 
 0x00, 0x00, 0x0e, 0x00, 0x18, 0x00, 0x14, 0x00, 0x10, 0x00, 0x0c, 0x00, 
 0x08, 0x00, 0x04, 0x00, 0x0e, 0x00, 0x00, 0x00, 0x14, 0x00, 0x00, 0x00, 
 0x1c, 0x00, 0x00, 0x00, 0x10, 0x01, 0x00, 0x00, 0x14, 0x01, 0x00, 0x00, 
 0x18, 0x01, 0x00, 0x00, 0x04, 0x00, 0x00, 0x00, 0x6d, 0x61, 0x69, 0x6e, 
 0x00, 0x00, 0x00, 0x00, 0x04, 0x00, 0x00, 0x00, 0xb8, 0x00, 0x00, 0x00, 
 0x70, 0x00, 0x00, 0x00, 0x38, 0x00, 0x00, 0x00, 0x04, 0x00, 0x00, 0x00, 
 0x66, 0xff, 0xff, 0xff, 0x10, 0x00, 0x00, 0x00, 0x00, 0x00, 0x00, 0x08, 
 0x0c, 0x00, 0x00, 0x00, 0x10, 0x00, 0x00, 0x00, 0x24, 0xfa, 0xff, 0xff, 
 0x01, 0x00, 0x00, 0x00, 0x0c, 0x00, 0x00, 0x00, 0x03, 0x00, 0x00, 0x00, 
 0x0b, 0x00, 0x00, 0x00, 0x01, 0x00, 0x00, 0x00, 0x04, 0x00, 0x00, 0x00, 
 0x96, 0xff, 0xff, 0xff, 0x10, 0x00, 0x00, 0x00, 0x00, 0x00, 0x00, 0x08, 
 0x10, 0x00, 0x00, 0x00, 0x14, 0x00, 0x00, 0x00, 0x86, 0xff, 0xff, 0xff, 
 0x00, 0x00, 0x00, 0x01, 0x01, 0x00, 0x00, 0x00, 0x0b, 0x00, 0x00, 0x00, 
 0x03, 0x00, 0x00, 0x00, 0x0a, 0x00, 0x00, 0x00, 0x02, 0x00, 0x00, 0x00, 
 0x05, 0x00, 0x00, 0x00, 0xca, 0xff, 0xff, 0xff, 0x10, 0x00, 0x00, 0x00, 
 0x00, 0x00, 0x00, 0x08, 0x10, 0x00, 0x00, 0x00, 0x14, 0x00, 0x00, 0x00, 
 0xba, 0xff, 0xff, 0xff, 0x00, 0x00, 0x00, 0x01, 0x01, 0x00, 0x00, 0x00, 
 0x0a, 0x00, 0x00, 0x00, 0x03, 0x00, 0x00, 0x00, 0x09, 0x00, 0x00, 0x00, 
 0x03, 0x00, 0x00, 0x00, 0x06, 0x00, 0x00, 0x00, 0x00, 0x00, 0x0e, 0x00, 
 0x16, 0x00, 0x00, 0x00, 0x10, 0x00, 0x0c, 0x00, 0x0b, 0x00, 0x04, 0x00, 
 0x0e, 0x00, 0x00, 0x00, 0x18, 0x00, 0x00, 0x00, 0x00, 0x00, 0x00, 0x08, 
 0x18, 0x00, 0x00, 0x00, 0x1c, 0x00, 0x00, 0x00, 0x00, 0x00, 0x06, 0x00, 
 0x08, 0x00, 0x07, 0x00, 0x06, 0x00, 0x00, 0x00, 0x00, 0x00, 0x00, 0x01, 
 0x01, 0x00, 0x00, 0x00, 0x09, 0x00, 0x00, 0x00, 0x03, 0x00, 0x00, 0x00, 
 0x00, 0x00, 0x00, 0x00, 0x08, 0x00, 0x00, 0x00, 0x07, 0x00, 0x00, 0x00, 
 0x01, 0x00, 0x00, 0x00, 0x0c, 0x00, 0x00, 0x00, 0x01, 0x00, 0x00, 0x00, 
 0x00, 0x00, 0x00, 0x00, 0x0d, 0x00, 0x00, 0x00, 0xd0, 0x04, 0x00, 0x00, 
 0x78, 0x04, 0x00, 0x00, 0x20, 0x04, 0x00, 0x00, 0xe0, 0x03, 0x00, 0x00, 
 0xa4, 0x03, 0x00, 0x00, 0x68, 0x03, 0x00, 0x00, 0x2c, 0x03, 0x00, 0x00, 
 0xc8, 0x02, 0x00, 0x00, 0x70, 0x02, 0x00, 0x00, 0xc0, 0x01, 0x00, 0x00, 
 0x10, 0x01, 0x00, 0x00, 0x60, 0x00, 0x00, 0x00, 0x04, 0x00, 0x00, 0x00, 
 0x7a, 0xfb, 0xff, 0xff, 0x00, 0x00, 0x00, 0x01, 0x14, 0x00, 0x00, 0x00, 
 0x1c, 0x00, 0x00, 0x00, 0x1c, 0x00, 0x00, 0x00, 0x0d, 0x00, 0x00, 0x00, 
 0x34, 0x00, 0x00, 0x00, 0x02, 0x00, 0x00, 0x00, 0xff, 0xff, 0xff, 0xff, 
 0x01, 0x00, 0x00, 0x00, 0x64, 0xfb, 0xff, 0xff, 0x1b, 0x00, 0x00, 0x00, 
 0x53, 0x74, 0x61, 0x74, 0x65, 0x66, 0x75, 0x6c, 0x50, 0x61, 0x72, 0x74, 
 0x69, 0x74, 0x69, 0x6f, 0x6e, 0x65, 0x64, 0x43, 0x61, 0x6c, 0x6c, 0x5f, 
 0x31, 0x3a, 0x30, 0x00, 0x02, 0x00, 0x00, 0x00, 0x01, 0x00, 0x00, 0x00, 
 0x01, 0x00, 0x00, 0x00, 0xd2, 0xfb, 0xff, 0xff, 0x00, 0x00, 0x00, 0x01, 
 0x14, 0x00, 0x00, 0x00, 0x1c, 0x00, 0x00, 0x00, 0x1c, 0x00, 0x00, 0x00, 
 0x0c, 0x00, 0x00, 0x00, 0x88, 0x00, 0x00, 0x00, 0x02, 0x00, 0x00, 0x00, 
 0xff, 0xff, 0xff, 0xff, 0x10, 0x00, 0x00, 0x00, 0xbc, 0xfb, 0xff, 0xff, 
 0x6d, 0x00, 0x00, 0x00, 0x73, 0x65, 0x71, 0x75, 0x65, 0x6e, 0x74, 0x69, 
 0x61, 0x6c, 0x5f, 0x39, 0x33, 0x31, 0x5f, 0x31, 0x2f, 0x64, 0x65, 0x6e, 
 0x73, 0x65, 0x5f, 0x33, 0x37, 0x32, 0x36, 0x5f, 0x31, 0x2f, 0x4d, 0x61, 
 0x74, 0x4d, 0x75, 0x6c, 0x3b, 0x73, 0x65, 0x71, 0x75, 0x65, 0x6e, 0x74, 
 0x69, 0x61, 0x6c, 0x5f, 0x39, 0x33, 0x31, 0x5f, 0x31, 0x2f, 0x64, 0x65, 
 0x6e, 0x73, 0x65, 0x5f, 0x33, 0x37, 0x32, 0x36, 0x5f, 0x31, 0x2f, 0x52, 
 0x65, 0x6c, 0x75, 0x3b, 0x73, 0x65, 0x71, 0x75, 0x65, 0x6e, 0x74, 0x69, 
 0x61, 0x6c, 0x5f, 0x39, 0x33, 0x31, 0x5f, 0x31, 0x2f, 0x64, 0x65, 0x6e, 
 0x73, 0x65, 0x5f, 0x33, 0x37, 0x32, 0x36, 0x5f, 0x31, 0x2f, 0x42, 0x69, 
 0x61, 0x73, 0x41, 0x64, 0x64, 0x00, 0x00, 0x00, 0x02, 0x00, 0x00, 0x00, 
 0x01, 0x00, 0x00, 0x00, 0x10, 0x00, 0x00, 0x00, 0x7e, 0xfc, 0xff, 0xff, 
 0x00, 0x00, 0x00, 0x01, 0x14, 0x00, 0x00, 0x00, 0x1c, 0x00, 0x00, 0x00, 
 0x1c, 0x00, 0x00, 0x00, 0x0b, 0x00, 0x00, 0x00, 0x88, 0x00, 0x00, 0x00, 
 0x02, 0x00, 0x00, 0x00, 0xff, 0xff, 0xff, 0xff, 0x20, 0x00, 0x00, 0x00, 
 0x68, 0xfc, 0xff, 0xff, 0x6d, 0x00, 0x00, 0x00, 0x73, 0x65, 0x71, 0x75, 
 0x65, 0x6e, 0x74, 0x69, 0x61, 0x6c, 0x5f, 0x39, 0x33, 0x31, 0x5f, 0x31, 
 0x2f, 0x64, 0x65, 0x6e, 0x73, 0x65, 0x5f, 0x33, 0x37, 0x32, 0x35, 0x5f, 
 0x31, 0x2f, 0x4d, 0x61, 0x74, 0x4d, 0x75, 0x6c, 0x3b, 0x73, 0x65, 0x71, 
 0x75, 0x65, 0x6e, 0x74, 0x69, 0x61, 0x6c, 0x5f, 0x39, 0x33, 0x31, 0x5f, 
 0x31, 0x2f, 0x64, 0x65, 0x6e, 0x73, 0x65, 0x5f, 0x33, 0x37, 0x32, 0x35, 
 0x5f, 0x31, 0x2f, 0x52, 0x65, 0x6c, 0x75, 0x3b, 0x73, 0x65, 0x71, 0x75, 
 0x65, 0x6e, 0x74, 0x69, 0x61, 0x6c, 0x5f, 0x39, 0x33, 0x31, 0x5f, 0x31, 
 0x2f, 0x64, 0x65, 0x6e, 0x73, 0x65, 0x5f, 0x33, 0x37, 0x32, 0x35, 0x5f, 
 0x31, 0x2f, 0x42, 0x69, 0x61, 0x73, 0x41, 0x64, 0x64, 0x00, 0x00, 0x00, 
 0x02, 0x00, 0x00, 0x00, 0x01, 0x00, 0x00, 0x00, 0x20, 0x00, 0x00, 0x00, 
 0x2a, 0xfd, 0xff, 0xff, 0x00, 0x00, 0x00, 0x01, 0x14, 0x00, 0x00, 0x00, 
 0x1c, 0x00, 0x00, 0x00, 0x1c, 0x00, 0x00, 0x00, 0x0a, 0x00, 0x00, 0x00, 
 0x88, 0x00, 0x00, 0x00, 0x02, 0x00, 0x00, 0x00, 0xff, 0xff, 0xff, 0xff, 
 0x40, 0x00, 0x00, 0x00, 0x14, 0xfd, 0xff, 0xff, 0x6d, 0x00, 0x00, 0x00, 
 0x73, 0x65, 0x71, 0x75, 0x65, 0x6e, 0x74, 0x69, 0x61, 0x6c, 0x5f, 0x39, 
 0x33, 0x31, 0x5f, 0x31, 0x2f, 0x64, 0x65, 0x6e, 0x73, 0x65, 0x5f, 0x33, 
 0x37, 0x32, 0x34, 0x5f, 0x31, 0x2f, 0x4d, 0x61, 0x74, 0x4d, 0x75, 0x6c, 
 0x3b, 0x73, 0x65, 0x71, 0x75, 0x65, 0x6e, 0x74, 0x69, 0x61, 0x6c, 0x5f, 
 0x39, 0x33, 0x31, 0x5f, 0x31, 0x2f, 0x64, 0x65, 0x6e, 0x73, 0x65, 0x5f, 
 0x33, 0x37, 0x32, 0x34, 0x5f, 0x31, 0x2f, 0x52, 0x65, 0x6c, 0x75, 0x3b, 
 0x73, 0x65, 0x71, 0x75, 0x65, 0x6e, 0x74, 0x69, 0x61, 0x6c, 0x5f, 0x39, 
 0x33, 0x31, 0x5f, 0x31, 0x2f, 0x64, 0x65, 0x6e, 0x73, 0x65, 0x5f, 0x33, 
 0x37, 0x32, 0x34, 0x5f, 0x31, 0x2f, 0x42, 0x69, 0x61, 0x73, 0x41, 0x64, 
 0x64, 0x00, 0x00, 0x00, 0x02, 0x00, 0x00, 0x00, 0x01, 0x00, 0x00, 0x00, 
 0x40, 0x00, 0x00, 0x00, 0x2a, 0xfe, 0xff, 0xff, 0x00, 0x00, 0x00, 0x01, 
 0x10, 0x00, 0x00, 0x00, 0x10, 0x00, 0x00, 0x00, 0x09, 0x00, 0x00, 0x00, 
 0x34, 0x00, 0x00, 0x00, 0xb0, 0xfd, 0xff, 0xff, 0x24, 0x00, 0x00, 0x00, 
 0x73, 0x65, 0x71, 0x75, 0x65, 0x6e, 0x74, 0x69, 0x61, 0x6c, 0x5f, 0x39, 
 0x33, 0x31, 0x5f, 0x31, 0x2f, 0x64, 0x65, 0x6e, 0x73, 0x65, 0x5f, 0x33, 
 0x37, 0x32, 0x34, 0x5f, 0x31, 0x2f, 0x4d, 0x61, 0x74, 0x4d, 0x75, 0x6c, 
 0x00, 0x00, 0x00, 0x00, 0x02, 0x00, 0x00, 0x00, 0x40, 0x00, 0x00, 0x00, 
 0x06, 0x00, 0x00, 0x00, 0x7e, 0xfe, 0xff, 0xff, 0x00, 0x00, 0x00, 0x01, 
 0x10, 0x00, 0x00, 0x00, 0x10, 0x00, 0x00, 0x00, 0x08, 0x00, 0x00, 0x00, 
 0x44, 0x00, 0x00, 0x00, 0x04, 0xfe, 0xff, 0xff, 0x34, 0x00, 0x00, 0x00, 
 0x73, 0x65, 0x71, 0x75, 0x65, 0x6e, 0x74, 0x69, 0x61, 0x6c, 0x5f, 0x39, 
 0x33, 0x31, 0x5f, 0x31, 0x2f, 0x64, 0x65, 0x6e, 0x73, 0x65, 0x5f, 0x33, 
 0x37, 0x32, 0x34, 0x5f, 0x31, 0x2f, 0x42, 0x69, 0x61, 0x73, 0x41, 0x64, 
 0x64, 0x2f, 0x52, 0x65, 0x61, 0x64, 0x56, 0x61, 0x72, 0x69, 0x61, 0x62, 
 0x6c, 0x65, 0x4f, 0x70, 0x00, 0x00, 0x00, 0x00, 0x01, 0x00, 0x00, 0x00, 
 0x40, 0x00, 0x00, 0x00, 0xde, 0xfe, 0xff, 0xff, 0x00, 0x00, 0x00, 0x01, 
 0x10, 0x00, 0x00, 0x00, 0x10, 0x00, 0x00, 0x00, 0x07, 0x00, 0x00, 0x00, 
 0x1c, 0x00, 0x00, 0x00, 0x64, 0xfe, 0xff, 0xff, 0x0f, 0x00, 0x00, 0x00, 
 0x61, 0x72, 0x69, 0x74, 0x68, 0x2e, 0x63, 0x6f, 0x6e, 0x73, 0x74, 0x61, 
 0x6e, 0x74, 0x35, 0x00, 0x01, 0x00, 0x00, 0x00, 0x20, 0x00, 0x00, 0x00, 
 0x16, 0xff, 0xff, 0xff, 0x00, 0x00, 0x00, 0x01, 0x10, 0x00, 0x00, 0x00, 
 0x10, 0x00, 0x00, 0x00, 0x06, 0x00, 0x00, 0x00, 0x1c, 0x00, 0x00, 0x00, 
 0x9c, 0xfe, 0xff, 0xff, 0x0f, 0x00, 0x00, 0x00, 0x61, 0x72, 0x69, 0x74, 
 0x68, 0x2e, 0x63, 0x6f, 0x6e, 0x73, 0x74, 0x61, 0x6e, 0x74, 0x34, 0x00, 
 0x01, 0x00, 0x00, 0x00, 0x10, 0x00, 0x00, 0x00, 0x4e, 0xff, 0xff, 0xff, 
 0x00, 0x00, 0x00, 0x01, 0x10, 0x00, 0x00, 0x00, 0x10, 0x00, 0x00, 0x00, 
 0x05, 0x00, 0x00, 0x00, 0x1c, 0x00, 0x00, 0x00, 0xd4, 0xfe, 0xff, 0xff, 
 0x0f, 0x00, 0x00, 0x00, 0x61, 0x72, 0x69, 0x74, 0x68, 0x2e, 0x63, 0x6f, 
 0x6e, 0x73, 0x74, 0x61, 0x6e, 0x74, 0x33, 0x00, 0x01, 0x00, 0x00, 0x00, 
 0x01, 0x00, 0x00, 0x00, 0x86, 0xff, 0xff, 0xff, 0x00, 0x00, 0x00, 0x01, 
 0x10, 0x00, 0x00, 0x00, 0x10, 0x00, 0x00, 0x00, 0x04, 0x00, 0x00, 0x00, 
 0x1c, 0x00, 0x00, 0x00, 0x0c, 0xff, 0xff, 0xff, 0x0f, 0x00, 0x00, 0x00, 
 0x61, 0x72, 0x69, 0x74, 0x68, 0x2e, 0x63, 0x6f, 0x6e, 0x73, 0x74, 0x61, 
 0x6e, 0x74, 0x32, 0x00, 0x02, 0x00, 0x00, 0x00, 0x20, 0x00, 0x00, 0x00, 
 0x40, 0x00, 0x00, 0x00, 0xc2, 0xff, 0xff, 0xff, 0x00, 0x00, 0x00, 0x01, 
 0x10, 0x00, 0x00, 0x00, 0x10, 0x00, 0x00, 0x00, 0x03, 0x00, 0x00, 0x00, 
 0x1c, 0x00, 0x00, 0x00, 0x48, 0xff, 0xff, 0xff, 0x0f, 0x00, 0x00, 0x00, 
 0x61, 0x72, 0x69, 0x74, 0x68, 0x2e, 0x63, 0x6f, 0x6e, 0x73, 0x74, 0x61, 
 0x6e, 0x74, 0x31, 0x00, 0x02, 0x00, 0x00, 0x00, 0x10, 0x00, 0x00, 0x00, 
 0x20, 0x00, 0x00, 0x00, 0x00, 0x00, 0x16, 0x00, 0x18, 0x00, 0x14, 0x00, 
 0x00, 0x00, 0x10, 0x00, 0x0c, 0x00, 0x08, 0x00, 0x00, 0x00, 0x00, 0x00, 
 0x00, 0x00, 0x07, 0x00, 0x16, 0x00, 0x00, 0x00, 0x00, 0x00, 0x00, 0x01, 
 0x10, 0x00, 0x00, 0x00, 0x10, 0x00, 0x00, 0x00, 0x02, 0x00, 0x00, 0x00, 
 0x1c, 0x00, 0x00, 0x00, 0x9c, 0xff, 0xff, 0xff, 0x0e, 0x00, 0x00, 0x00, 
 0x61, 0x72, 0x69, 0x74, 0x68, 0x2e, 0x63, 0x6f, 0x6e, 0x73, 0x74, 0x61, 
 0x6e, 0x74, 0x00, 0x00, 0x02, 0x00, 0x00, 0x00, 0x01, 0x00, 0x00, 0x00, 
 0x10, 0x00, 0x00, 0x00, 0x00, 0x00, 0x16, 0x00, 0x1c, 0x00, 0x18, 0x00, 
 0x00, 0x00, 0x14, 0x00, 0x10, 0x00, 0x0c, 0x00, 0x00, 0x00, 0x00, 0x00, 
 0x08, 0x00, 0x07, 0x00, 0x16, 0x00, 0x00, 0x00, 0x00, 0x00, 0x00, 0x01, 
 0x14, 0x00, 0x00, 0x00, 0x20, 0x00, 0x00, 0x00, 0x20, 0x00, 0x00, 0x00, 
 0x01, 0x00, 0x00, 0x00, 0x40, 0x00, 0x00, 0x00, 0x02, 0x00, 0x00, 0x00, 
 0xff, 0xff, 0xff, 0xff, 0x06, 0x00, 0x00, 0x00, 0x04, 0x00, 0x04, 0x00, 
 0x04, 0x00, 0x00, 0x00, 0x23, 0x00, 0x00, 0x00, 0x73, 0x65, 0x72, 0x76, 
 0x69, 0x6e, 0x67, 0x5f, 0x64, 0x65, 0x66, 0x61, 0x75, 0x6c, 0x74, 0x5f, 
 0x6b, 0x65, 0x72, 0x61, 0x73, 0x5f, 0x74, 0x65, 0x6e, 0x73, 0x6f, 0x72, 
 0x5f, 0x36, 0x35, 0x31, 0x37, 0x3a, 0x30, 0x00, 0x02, 0x00, 0x00, 0x00, 
 0x01, 0x00, 0x00, 0x00, 0x06, 0x00, 0x00, 0x00, 0x01, 0x00, 0x00, 0x00, 
 0x10, 0x00, 0x00, 0x00, 0x0c, 0x00, 0x0c, 0x00, 0x0b, 0x00, 0x00, 0x00, 
 0x00, 0x00, 0x04, 0x00, 0x0c, 0x00, 0x00, 0x00, 0x09, 0x00, 0x00, 0x00, 
 0x00, 0x00, 0x00, 0x09, 
};
unsigned int model_tflite_len = 14620;
